[PAD]
[UNK]
[CLS]
[SEP]
[MASK]
!
"
#
$
%
&
'
(
)
*
+
,
-
.
/
0
1
2
3
4
5
6
7
8
9
:
;
<
=
>
?
@
[
\
]
^
_
`
a
b
c
d
e
f
g
h
i
j
k
l
m
n
o
p
q
r
s
t
u
v
w
x
y
z
{
|
}
~
¡
¢
£
¤
¥
¦
§
¨
©
ª
«
¬
®
¯
°
±
²
³
´
µ
¶
·
¸
¹
º
»
¼
½
¾
¿
×
ß
æ
ð
÷
ø
þ
ı
ĳ
ł
œ
ƒ
ɑ
ɖ
ɛ
ɪ
ʊ
ʼ
˂
˃
ˆ
ˇ
ˈ
ˉ
ː
˘
˙
˚
˛
˜
˝
α
β
γ
δ
ε
ζ
η
θ
ι
κ
λ
μ
ν
ξ
ο
π
ρ
σ
τ
υ
φ
χ
ψ
ω
ϕ
ϵ
д
є
ߪ
ࢤ
ࣔ
ࣘ
ࣙ
ᵒ
‐
–
—
―
‖
‘
’
‚
“
”
„
†
‡
•
…
‰
′
″
‴
‹
›
⁄
⁰
€
₵
⃝
ℂ
℃
℉
ℊ
ℎ
ℓ
ℕ
ℝ
™
ℤ
ℯ
ℵ
⅓
⅔
⅕
⅛
←
↑
→
↓
↔
↦
↵
⇐
⇒
⇓
⇔
⇠
⇡
⇣
⇤
⇥
⇧
∀
∁
∂
∃
∅
∆
∇
∈
∏
∑
−
∓
∖
∗
∘
∙
√
∝
∞
∠
∣
∥
∧
∨
∩
∪
∫
∴
∶
∼
≃
≅
≆
≈
≡
≤
≥
≪
≫
≺
⊂
⊃
⊆
⊇
⊕
⊗
⊢
⊥
⋂
⋃
⋄
⋅
⋆
⋮
⋯
⌈
⌉
⌊
⌋
⌘
⌠
⌡
⎛
⎜
⎝
⎞
⎟
⎠
⎡
⎢
⎣
⎤
⎥
⎦
⎧
⎨
⎩
⎪
⎫
⎬
⎭
⎯
⏞
⏟
─
│
║
■
□
▲
△
▸
▼
◆
○
●
◦
★
☐
♠
♡
♢
♣
♥
♦
✏
✓
✖
⟦
⟧
⟨
⟩
⟶
⟹
⟺
⟼
⨁
⪯
⪰
⬚
、
。
〈
〉
一
三
上
下
不
与
且
东
两
个
中
串
为
主
义
之
也
习
了
二
于
五
些
交
人
仅
介
从
代
令
以
们
件
会
似
但
何
余
你
例
供
依
保
信
值
做
入
八
公
六
关
兴
其
具
册
再
决
几
出
函
分
列
则
判
别
到
前
剩
功
加
勒
十
单
参
及
取
另
可
各
同
后
否
含
告
和
喜
四
因
困
在
地
块
域
境
处
外
多
够
大
好
如
妙
始
字
学
它
完
定
实
审
家
对
寻
导
将
尝
就
尽
展
已
师
希
带
常
幂
年
并
幸
序
开
弄
式
归
当
很
得
微
快
念
性
您
惑
想
意
感
成
我
或
截
所
手
找
抽
按
接
推
描
提
收
敛
散
数
整
新
方
无
日
时
明
易
是
更
曾
最
月
有
朗
望
期
末
本
机
束
条
来
松
极
析
果
某
根
案
梦
棘
楚
概
模
次
欢
欲
止
正
此
比
永
法
注
泰
测
清
渴
满
激
点
然
照
特
环
理
用
由
疑
的
目
直
相
真
知
确
示
离
种
积
程
穷
第
答
简
类
系
级
终
绍
经
结
给
绝
继
续
置
而
肯
背
能
至
荣
表
西
要
见
观
规
解
言
让
讲
许
访
证
识
诉
试
该
说
请
课
豁
象
负
起
趣
足
轻
较
达
迎
近
还
这
远
述
递
通
部
都
醒
重
量
错
问
间
限
难
非
面
项
顺
题
高
ﬀ
ﬁ
ﬂ
ﬃ
ﬄ
！
，
：
；
？
𝐀
𝐁
𝐂
𝐃
𝐄
𝐅
𝐆
𝐇
𝐈
𝐉
𝐋
𝐌
𝐍
𝐎
𝐏
𝐐
𝐑
𝐒
𝐓
𝐔
𝐕
𝐖
𝐘
𝐚
𝐛
𝐜
𝐝
𝐞
𝐟
𝐠
𝐡
𝐢
𝐣
𝐤
𝐥
𝐦
𝐧
𝐨
𝐩
𝐪
𝐫
𝐬
𝐭
𝐮
𝐯
𝐰
𝐱
𝐲
𝐳
𝐴
𝐵
𝐶
𝐷
𝐸
𝐹
𝐺
𝐻
𝐼
𝐽
𝐾
𝐿
𝑀
𝑁
𝑂
𝑃
𝑄
𝑅
𝑆
𝑇
𝑈
𝑉
𝑊
𝑋
𝑌
𝑍
𝑎
𝑏
𝑐
𝑑
𝑒
𝑓
𝑔
𝑖
𝑗
𝑘
𝑙
𝑚
𝑛
𝑜
𝑝
𝑞
𝑟
𝑠
𝑡
𝑢
𝑣
𝑤
𝑥
𝑦
𝑧
𝑨
𝑩
𝑪
𝑫
𝑬
𝑭
𝑮
𝑯
𝑰
𝑱
𝑲
𝑳
𝑴
𝑵
𝑶
𝑷
𝑸
𝑹
𝑺
𝑻
𝑼
𝑽
𝑾
𝑿
𝒀
𝒁
𝒂
𝒃
𝒄
𝒅
𝒆
𝒇
𝒈
𝒉
𝒊
𝒋
𝒌
𝒍
𝒎
𝒏
𝒐
𝒑
𝒒
𝒓
𝒔
𝒕
𝒖
𝒗
𝒘
𝒙
𝒚
𝒛
𝒶
𝒷
𝒸
𝒻
𝒽
𝒾
𝒿
𝓂
𝓃
𝓅
𝓆
𝓉
𝓊
𝓌
𝓍
𝓎
𝓪
𝓫
𝓬
𝓮
𝓰
𝓲
𝓳
𝓴
𝓵
𝓶
𝓷
𝓺
𝓼
𝚤
𝚫
𝚺
𝛂
𝛃
𝛉
𝛑
𝛲
𝛼
𝛽
𝛾
𝛿
𝜀
𝜃
𝜆
𝜇
𝜋
𝜎
𝜑
𝜓
𝜔
𝜗
𝜙
𝜟
𝜬
𝜶
𝜷
𝜸
𝜹
𝜽
𝝁
𝝅
𝝋
𝝍
𝝎
𝝑
𝝓
𝞘
𝟎
𝟏
𝟐
𝟑
𝟒
𝟓
𝟔
𝟕
𝟖
𝟗
##q
##p
##9
##x
##n
##d
##m
##c
##o
##¦
##l
##¬
##k
##j
##f
##i
##a
##𝟏
##𝟐
##r
##e
##t
##s
##𝟔
##𝟓
##°
##3
##÷
##1
##5
##𝟖
##𝐟
##𝐭
##𝟑
##u
##y
##𝒓
##6
##4
##2
##g
##w
##0
##×
##v
##h
##−
##b
##𝟎
##𝑼
##ω
##8
##z
##∈
##𝑎
##𝐚
##𝐬
##𝒑
##𝑚
##𝑖
##𝑓
##𝑑
##𝟕
##∙
##𝐜
##𝝅
##𝒕
##𝟒
##¹
##ª
##¥
##æ
##ð
##𝑡
##√
##𝑘
##𝑣
##⋮
##𝑛
##⇥
##→
##𝑸
##𝑫
##𝑮
##𝑦
##𝑧
##𝑥
##𝜋
##µ
##π
##7
##≥
##𝒃
##ﬁ
##∠
##𝒖
##∗
##⋅
##𝐵
##𝐴
##𝒙
##σ
##𝐥
##𝐦
##𝐀
##𝟗
##𝑟
##θ
##≈
##∪
##𝑩
##𝑪
##λ
##≤
##𝑨
##𝐢
##𝒔
##𝑿
##𝒀
##𝒁
##¨
##±
##𝐸
##𝐂
##δ
##∞
##𝒋
##𝒌
##þ
##ﬃ
##𝑴
##𝑻
##ˆ
##¸
##𝒏
##𝑆
##𝑅
##∥
##𝑇
##𝑄
##𝜃
##𝑏
##𝑃
##𝐿
##⊥
##𝑁
##𝐾
##𝐨
##𝒊
##𝒚
##𝐶
##𝐺
##∼
##△
##¤
##𝒈
##𝒉
##𝐝
##𝑭
##£
##⃝
##𝐡
##𝐇
##𝑐
##𝐻
##𝐽
##𝑝
##∨
##ϕ
##𝒘
##¯
##⇤
##𝑂
##𝑷
##𝑹
##𝑵
##𝑬
##𝑶
##©
##∂
##𝑱
##𝑺
##≅
##𝒂
##𝒎
##´
##γ
##𝐼
##𝒍
##𝐅
##𝐖
##𝐏
##˚
##𝑰
##𝐹
##𝐫
##𝐃
##⎦
##⎥
##⎤
##𝐞
##ℎ
##𝒄
##∘
##𝒅
##𝐤
##𝒇
##𝐷
##𝒛
##ε
##♣
##𝑾
##ℝ
##α
##𝐠
##∆
##κ
##𝑯
##𝑤
##ˇ
##⊗
##𝑉
##𝑊
##⊆
##𝐮
##ø
##𝜟
##𝑠
##𝑔
##𝐑
##𝐧
##β
##𝑽
##𝐩
##∀
##𝑈
##𝜽
##𝑳
##𝑌
##𝑍
##⎢
##⎡
##◦
##⁄
##∃
##𝐛
##ℓ
##𝑲
##𝑀
##є
##η
##¾
##º
##𝑞
##𝐓
##𝛑
##𝐁
##𝒗
##𝐍
##𝐒
##𝛽
##𝑙
##ﬀ
##𝐕
##𝐯
##─
##℉
##𝒒
##ψ
##χ
##𝐱
##↔
##˛
##𝑋
##∩
##♠
##𝝍
##𝑗
##∑
##𝑢
##𝑒
##𝒆
##⋯
##φ
##𝐈
##∫
##ρ
##¼
##⎜
##⎛
##⎠
##⎟
##⎞
##𝑜
##║
##®
##∧
##ı
##ι
##𝐰
##≆
##𝐆
##ﬂ
##ξ
##¢
##𝒐
##τ
##μ
##œ
##∇
##⇡
##𝝁
##𝐐
##˜
##♦
##𝐣
##𝐲
##ϵ
##³
##𝜷
##♥
##⏟
##⨁
##˙
##⇣
##∶
##𝓍
##𝝓
##ν
##½
##𝓬
##✓
##⅔
##𝓃
##⟶
##𝜶
##𝜹
##ζ
##₵
##𝓶
##ᵒ
##⇒
##⊂
##𝐋
##𝛼
##ﬄ
##𝐌
##𝐪
##𝓊
##𝓷
##𝓂
##↵
##𝝎
##⌠
##ĳ
##ɛ
##ˈ
##ɑ
##ː
##ɪ
##ʊ
##²
##│
##ß
##𝓵
##⊕
##∴
##⎣
##⋂
##∓
##↦
##𝛾
##𝛲
##𝞘
##𝜔
##𝜇
##𝜆
##𝐄
##≡
##◆
##∖
##℃
##𝓰
##↓
##𝐘
##⟺
##⎪
##⎨
##⎧
##⇓
##↑
##∏
##⎝
##𝛂
##⁰
##𝓌
##⎯
##€
##□
##𝚺
##𝝋
##ʼ
##𝚫
##𝛉
##ࢤ
##™
##𝛿
##𝐎
##⏞
##ł
##←
##𝐳
##ℵ
##𝜓
##𝒽
##ℂ
##𝓆
##ߪ
##𝝑
##⅕
##𝐔
##𝓉
##∅
##𝓲
##⋃
##⎭
##⎬
##⎫
##𝐉
##✏
##𝒶
##𝒿
##⅓
##𝒷
##𝒻
##𝓎
##𝓪
##𝜸
##𝚤
##𝜙
##𝜗
##○
##𝛃
##⌡
##𝓮
##˘
##𝓳
##𝓫
##⌘
##ο
##𝓼
##𝜬
##⟼
##𝓴
##ℤ
##𝜑
##𝒾
##𝒸
##˝
##≺
##⋄
##𝓅
##𝓺
##𝜎
##𝜀
th
the
##on
##ti
##er
##es
##in
##en
##or
##al
of
##at
##tion
##nd
##ed
in
##ar
##ro
##it
##an
##re
##ic
##is
and
##le
to
##om
##ing
is
##ation
##et
we
##ent
##as
##ac
##ve
for
##ec
##ul
pro
con
##ol
##el
##ou
st
##im
##ow
##st
on
##si
that
an
al
##ly
##ith
##am
##um
wh
##ur
ex
##id
this
##tic
com
##se
##uc
##ri
##qu
##od
##em
with
##ra
##ot
as
##ble
##per
##il
are
##ts
mat
##ig
##ver
re
##ce
sh
by
##pl
##ut
be
##ter
##ess
##ate
##ge
##ity
##ir
sp
or
##tions
comp
##ati
##if
##ud
math
##ure
##iv
##ain
##ations
##res
res
##sion
de
##iz
po
##ect
par
##ine
su
##un
##tin
equ
##ph
##ber
num
un
ch
##ents
stud
##pp
dis
##ch
##ich
##th
##ds
cl
##rom
##ric
##ab
mod
##ence
##rou
at
ma
##unc
##ari
##sed
co
which
from
##te
show
qu
##ial
##ork
##orm
number
sol
##ore
##us
func
##der
non
##ical
##blem
##og
problem
##ener
ne
##oc
sy
##ite
##ting
cid
##ant
can
##igh
##ple
fin
gener
it
pa
##ach
min
resul
##and
se
##erm
##ace
##rib
##ated
##ution
##ay
tw
##di
le
##roup
##ruc
##ass
##ative
if
##ound
##tive
##tain
gra
##able
comm
##tim
##ular
form
us
two
app
##ere
##ted
##ary
##ers
set
not
ad
met
tr
theor
##ff
all
##ally
##act
ob
und
less
##fer
ha
##ies
sub
##ension
work
me
under
group
##ke
##geb
const
##enti
##ous
##form
fi
line
one
##resent
20
poin
##all
dif
tim
##ad
inter
en
paper
ar
model
##ator
lesson
algeb
##alu
##ang
##plic
##duc
rel
class
##ome
exp
##so
##uch
bound
you
##ase
general
##ll
##icen
ac
licen
##ans
im
##trib
10
##are
int
comple
also
##ties
graph
##ree
sim
function
##po
##rac
##stem
##end
dim
man
system
##etw
per
cur
common
vari
these
##fin
then
appro
##oth
inv
der
##ys
dimension
have
rep
pl
##ame
##hod
##cal
ab
##op
method
some
students
how
##ag
differ
mul
results
has
##yn
##ight
our
des
multi
giv
##ap
##les
space
##15
prov
prove
##gor
using
##ond
ass
such
##ide
##ruct
##ill
each
no
cor
##ment
ver
op
ge
rec
time
bas
valu
di
anal
pol
disc
##ility
gre
use
##ard
##rec
##por
algebra
##ie
##ign
exam
##ates
##xim
where
##ty
when
##ive
##yp
equation
over
##sider
##teg
there
consider
##ance
deriv
##atic
##ip
ind
integ
##low
##ian
##tribution
oper
es
trans
proper
order
##ithm
##ong
ext
##ist
study
##os
new
do
more
great
linear
condi
pr
kn
their
##ential
##een
mathb
its
##ose
##utions
##vel
##ely
mo
given
det
dec
##ization
ap
any
##ka
##aces
##enc
case
##etween
between
##etric
functions
sec
reg
##de
12
sm
inc
meas
obtain
fir
##ike
##ability
point
te
first
licensed
sch
typ
##ves
##ffic
so
char
term
2015
represent
##our
##est
##olog
finite
theory
##ann
##ens
##ral
##ematic
loc
mathbb
##pt
##ffici
##ther
##erc
desc
equations
sym
minds
eure
eureka
##vi
mathematic
estim
##ject
let
tri
##ust
up
##own
cre
partic
ev
##oun
##out
##cess
theorem
find
frac
##ion
##ep
operator
fiel
##tical
##ied
what
they
##gh
##ak
str
##com
##age
formul
##jec
##ize
struct
algor
algorithm
##ise
result
##ish
##omial
optim
##ue
##ized
##ord
##ures
dat
derived
ph
##ors
will
##orph
##ving
##acter
give
dimensional
out
problems
solution
present
##roduc
complex
solutions
propo
based
comput
##old
character
##its
##𝟏𝟏
data
##uld
conver
than
##eng
cont
same
determ
##ta
##ynomial
##ual
##ry
polynomial
rand
##ast
only
share
defin
random
sur
##lec
lar
##ng
##omorph
many
sum
introduc
type
##ma
##her
##ism
lim
##au
produc
fol
process
##gin
##ram
real
pre
##amet
##iqu
##comm
##ack
fact
##educ
##ym
but
mathematics
##ating
creative
numbers
expl
commons
part
##ational
noncomm
em
applic
##tional
other
spec
geom
particular
##xt
##of
col
he
org
##atis
core
conn
groups
posi
##ower
##rix
##ength
construc
both
points
terms
measure
minim
example
##resp
your
cal
top
##und
subs
well
corresp
follow
##ell
value
##ob
matrix
approach
##ples
##formation
equiv
##ov
paramet
resp
approxim
different
manif
##ulum
##tial
contin
prob
##ercial
attribution
curric
ans
curriculum
license
field
##ported
##rr
systems
noncommercial
##alike
sharealike
unported
##oci
numer
hy
proof
scal
sequ
used
##very
wr
vect
fl
describ
properties
sing
deg
symm
hom
high
mathcal
nys
spaces
answ
##𝟐𝟐
##als
sin
into
##ras
three
##ertain
##utes
discus
associ
id
length
correspond
##ression
##ould
##ics
second
##fficient
invari
##fy
end
map
about
am
##cul
##00
infin
##ech
local
structure
right
conditions
##ature
pos
cod
exist
##olds
coun
##lud
##ments
squ
##ings
known
ele
##ks
fe
minutes
continu
##line
addi
small
##ology
triang
##velop
##etry
log
converg
asym
##ero
norm
##abl
##ern
every
##otic
##istic
cir
##gy
positive
hyper
dep
##raw
##ange
analy
equival
##ynam
call
mon
numerical
fam
conject
large
ques
##sible
surf
##ft
##tiv
maxim
certain
sem
quant
##int
sc
plan
##eg
##rect
assum
##ality
quantum
##vers
graphs
##ule
##row
asympt
develop
go
19
inf
sign
fr
𝟏𝟏
circ
draw
div
may
##ort
##bit
ang
dom
ser
cons
rate
mar
asymptotic
acc
shown
regular
##fic
state
del
la
spect
supp
##plicit
provide
boundary
##etwork
unit
##xed
includ
##ole
##ub
network
models
##ved
##ency
calcul
reduc
11
bo
way
does
formula
comb
ori
write
conc
identi
##endent
algebras
associated
distribution
schem
##ategor
dynam
vector
sam
limit
##ear
lin
zero
solve
##ten
est
aut
pat
bel
optimal
probability
obtained
##ected
times
simple
dist
area
##ablish
methods
establish
modul
##ides
##jective
proposed
car
analys
them
expression
##rough
##tice
##tal
pair
complete
condition
##ases
classical
alph
was
lo
corresponding
existence
examples
##tig
explicit
lat
values
following
mean
15
##ok
categor
through
sl
integral
determin
allow
##ences
combin
analysis
expon
discre
gl
cent
##over
##ables
add
ide
##ooth
contain
##omorphism
err
tra
information
##ail
##ner
imp
metric
main
alpha
##tern
perform
extend
product
defined
##ia
lam
satis
relations
bl
##equ
quad
##vex
##echn
om
techn
answer
##osed
##sition
free
##onal
##ile
differential
operators
gam
##ib
ener
smooth
##da
fur
inves
bec
called
stand
contro
##ots
investig
##20
18
compact
domain
sequence
##ily
##yc
diag
explain
constant
13
student
sever
##inc
recent
conjecture
sets
##ities
property
pi
16
##atur
##anti
ell
make
been
power
bounded
need
coe
simil
##ress
lie
##ection
convergence
##bol
prim
distrib
##ank
##anc
##iew
##ega
factor
##ha
##astic
here
construct
##vious
energy
several
##annel
##ption
##onst
##och
##work
##ically
rem
left
eff
channel
##ser
inequ
infty
similar
pres
eig
##ants
subset
##ene
quanti
invariant
omega
continuous
##ness
14
lamb
square
align
indep
convex
##linear
lambda
##ective
tens
##ific
##ull
algebraic
##ton
vol
##rop
most
natur
##assi
geometric
eigen
##ether
##ays
previous
exact
##par
symmetric
possible
bet
module
den
closed
unif
ag
super
##hip
step
equal
compar
equivalent
##port
whose
##rices
generalized
##ave
strong
origin
error
special
##ompo
obser
describe
degree
invol
##rate
simul
representation
##ique
parameter
gamma
bounds
related
know
ed
##ological
weak
series
##ists
application
determine
##ier
##ided
distance
star
partial
would
cap
##aus
manifold
transform
##elf
plane
matrices
dem
𝟐𝟐
##ros
see
cos
standard
multiple
ii
##𝟑𝟑
frame
total
beha
family
multiplic
extension
arbit
requ
below
infinite
inst
independent
##ick
four
construction
©20
cases
addition
pot
ax
note
ini
discuss
since
arbitr
polynomials
introduce
decompo
##ough
27
nonlinear
begin
##iod
##ordin
even
##ice
apply
af
##cept
applications
size
##ons
dual
rational
ent
flow
##𝟎𝟎
17
##ges
discrete
25
file
##tivity
##ochastic
surface
delta
##omorphic
ro
stochastic
ra
##ision
##ful
##usion
sen
def
06
constra
##ey
##iter
geometry
##son
question
tor
manifolds
inver
scheme
fixed
coordin
##king
##ever
©2015
##tices
like
long
period
interp
side
##put
open
variables
##arn
classes
volum
##fore
least
##oid
cyc
##ement
version
##gn
##ivers
##stand
classi
control
uniform
behavi
introduced
while
element
princ
##ause
##hom
##ible
design
triangle
##ends
potential
fig
prec
respect
exerc
sufficient
scale
##ex
neg
finally
mark
glob
lower
level
impro
rank
##ho
ri
direc
cub
angle
diff
analog
initial
##tex
##ove
quas
connected
##sive
derive
cho
means
natural
normal
those
because
strate
diagram
shap
get
nec
##ding
br
import
fre
##rel
mi
circle
propose
approximation
arbitrary
singular
rect
incre
##round
rectang
volume
##man
cr
subg
demonst
exper
statis
after
ach
without
##ensity
thus
##ental
necess
framework
gaus
theore
count
moreover
hel
geq
prac
performance
achie
##tric
poly
##olution
representations
should
units
relationship
##fficients
coefficients
##ify
proved
##emann
compon
##bed
parti
above
weigh
integer
wor
estimate
conf
fields
mu
sample
states
characteristic
##oint
adm
21
riemann
##ock
reas
ta
understand
##ost
sig
##urn
were
image
##ratic
##ogene
rev
##sian
she
negative
setting
category
parameters
##rm
univers
upper
path
##one
sigma
algorithms
ones
spectral
##valu
appl
compute
flu
##lon
estimates
investigate
##ik
ham
##alle
##lection
##ators
however
presented
leq
text
now
why
##rees
density
quadratic
##etic
global
aff
##ither
action
##ritical
sense
ill
transm
considered
bund
201
gives
##ount
eigenvalu
descri
define
aver
##silon
reason
##izing
##ition
ref
depend
##ute
correct
30
maps
learn
cost
measures
rati
optimization
##ward
##psilon
##fication
curves
interv
variable
bu
important
##ret
##inary
24
tak
minimal
studied
ring
vertex
curv
##tur
table
bi
##ross
##eness
##ein
codes
##ger
elements
satisfy
various
##sequ
single
##ply
##red
𝟑𝟑
solving
curve
base
phys
stable
##ference
back
whole
##onic
##abil
##allel
##sc
questions
generated
##other
very
ellip
gu
##vial
prog
wave
further
topological
parallel
##𝟒𝟒
##text
analyz
law
via
subt
##eck
##ogeneous
iter
direct
higher
cohom
dynamics
allows
##bolic
exponential
##ries
notion
including
##ilton
##ind
context
inters
maximum
forms
hal
gr
self
##𝟓𝟓
##bert
grow
true
must
stability
found
tem
hamilton
##ads
another
induc
vertices
##ract
##iel
##itely
𝒙𝒙
lab
##odes
inequality
sit
artic
surfaces
structures
figure
shows
curvature
within
gaussian
constrain
pop
##ory
radi
##ety
##ration
##wise
change
rot
av
##raph
experim
dou
projective
illust
help
analytic
subgroup
relative
##up
low
##ink
hand
basis
inverse
compare
##utative
near
critical
##plit
concept
##ler
description
mom
either
##izes
−1
fund
100
embed
exists
region
restric
##rie
att
orth
##ises
prime
##ets
lines
dimensions
har
##ug
due
article
behavior
pers
answers
##lic
commun
complexity
accur
modules
fundam
##ild
pred
##ified
periodic
separ
networks
processes
shar
alm
irr
dig
look
beta
efficient
place
objec
interac
##ven
##acy
##ope
along
expressions
center
much
ask
quasi
cou
original
hyperbolic
##cc
frequ
##elian
##vari
repres
label
##pling
arg
x2
##rum
princi
cover
say
foc
fundamental
take
##kn
almost
##ulation
provided
##ually
##ately
section
32
tool
##isting
relation
##ired
22
phase
expan
##iques
lattice
provides
could
match
pairs
##oll
elliptic
##ded
suit
##plac
necessary
##ptions
##sp
cohomology
tran
range
applied
color
##yl
hil
##ater
did
hol
pertur
recently
variety
combinator
pattern
evalu
mid
##ced
half
perm
##pping
##ane
weight
expansion
squar
play
𝑥𝑥
adj
minimum
techniques
demonstrate
objects
key
maximal
appear
##lect
phi
turn
decomposition
200
difference
dir
seg
altern
##ead
el
rig
pri
predic
##stein
famil
##aves
clos
locally
row
observ
unkn
distributions
23
##here
spin
##til
abs
spectrum
consequ
abelian
tensor
angles
symmetry
auth
multiplication
contains
rob
##oti
situ
focus
##eter
mathematical
average
hilbert
index
communic
unique
##ct
##ernel
##av
entrop
##ectively
stat
##led
theta
##ages
chain
##tit
ratio
##ising
##uler
##rak
noise
##ior
yiel
fractional
adv
##rief
identify
##ects
review
##let
next
constructed
kernel
orthog
sk
et
sequences
remain
##rang
generalization
satisf
partner
unknown
od
height
parts
##eed
denot
gradi
##ading
connection
quoti
##pri
bar
cell
full
m1
##esting
hor
furth
year
appropri
enc
##uting
integers
##ins
express
##ermore
furthermore
exercise
ka
station
functional
central
simpl
schemes
m2
edge
affine
##uted
scho
practice
##alities
support
##ured
28
down
m3
sour
spar
preser
connec
criter
sug
nam
33
##raction
estimation
eas
equivalence
interval
##tah
developed
##ances
cite
invariants
cd
school
trivial
summ
occ
interpret
fraction
integra
principle
adap
##zation
26
##ctic
er
pois
##itten
dx
being
signal
sa
activity
wal
##ru
m4
##cep
diffusion
discussion
best
irreduc
homogeneous
therefore
##ire
##ﬁn
40
capac
poisson
##plectic
##izations
program
pe
unc
proced
argum
entropy
canon
rece
gen
vectors
𝟒𝟒
utah
off
view
##ci
cm
triangles
uniqu
lang
##ards
##eties
short
shape
inequalities
##atter
among
whether
vis
mass
types
lag
propor
126
gradient
pur
coordinate
##omorphisms
tick
hamiltonian
orthogonal
tog
van
##frak
markov
formulas
sent
thir
ideal
##sib
mathfrak
together
code
dri
combinatorial
computation
suitable
expand
motion
##arch
cong
pic
test
perturb
##𝐬𝐬
dynamical
sides
correl
extended
axis
theoretical
subsp
##asing
concern
##ners
ball
##arithm
described
indic
opp
check
##onom
involving
improve
products
transl
transformation
horiz
##imal
multiply
tree
ten
##erial
50
epsilon
motiv
000
appropriate
definition
irreducible
cross
weighted
##ces
holds
objective
big
euler
##rem
##otop
understanding
equil
families
valued
##ably
##ki
tang
strategy
impl
##entially
##qr
gal
regularity
semi
interest
home
val
##rier
canonical
basic
exactly
##echan
##monic
sti
name
horizon
distributed
##rated
suppose
perc
last
##sch
##gies
mathrm
pse
capacity
classification
mis
pseud
##dle
fil
counting
symplectic
varieties
lengths
##ld
partition
piec
probabil
box
odd
input
ear
determined
mem
divis
##uring
constraints
##ron
mechan
recur
tas
##arily
division
deb
formal
##ways
projec
double
having
riemannian
##−1
his
moment
plot
who
computational
root
##ps
just
material
analyze
infinity
squares
spati
##ax
sphere
scalar
growth
before
##𝑨𝑨
learning
logarithm
##oy
2n
##atives
eigenvalues
𝟓𝟓
conform
##tics
card
reduced
project
##itt
homology
include
##itz
##𝐜𝐜
rates
technique
approximate
fractions
novel
hyp
implies
always
##umn
##arities
respectively
##sing
components
population
stra
##onds
##ission
magn
detail
decod
theorems
larger
##abol
commutative
##lying
act
signific
vary
column
few
tre
assumptions
her
imple
bundle
frequency
established
derivative
game
36
consist
clust
reasoning
##ibri
##iding
leads
characterization
wid
categories
til
exit
xi
##igur
generalize
##not
universal
moduli
characterize
##iting
factors
permut
##art
##ches
statistical
parabol
additional
amount
dependent
made
##ucl
chap
##ths
assess
represents
##10
split
valid
35
##ix
specific
finding
occur
eucl
##rent
mathbf
ca
coordinates
rm
word
symbol
address
tau
good
𝟎𝟎
hour
##berg
equilibri
close
scatter
neigh
flat
hop
neighb
##qrt
ess
congru
##side
sqrt
##ters
cc
liter
med
##anced
spher
resulting
##𝐥𝐥
words
##𝟔𝟔
configur
transformations
29
ticket
mak
07
repe
wi
direction
digit
emph
sums
##𝒙𝒙
again
##times
debrief
radius
stationary
chang
##hood
evolution
mixed
hard
vertical
rectangle
discussed
around
reduction
degener
##igroup
deﬁn
hund
wide
hundred
##fied
##idean
##play
think
procedure
explicitly
##idual
greater
generating
component
euclidean
underlying
complet
sharp
rad
##iver
vanish
##ised
significant
operations
cop
##atures
calculate
##fect
implement
comparis
third
partners
compared
communication
slope
𝟏𝟏𝟏
orient
block
showing
homotop
dil
extrem
finitely
absol
intersection
source
identity
quotient
##ash
emp
48
arithm
calculus
chapter
genus
transmit
bra
chall
assumption
robust
rule
list
edges
follows
exercises
suppor
physical
aim
fluency
2x
60
assume
far
jac
generic
illustrate
topology
degrees
require
speed
interesting
sw
hence
uniqueness
##tor
approaches
m5
simulation
##arrow
prior
fou
##rict
mp
integrals
measurements
dev
fa
literature
orb
transmission
ban
loop
namely
cannot
##gest
conj
strategies
##etries
uses
fourier
avail
existing
makes
isomorphic
ld
temper
read
satisfies
semigroup
##idence
34
##pose
##eta
theoretic
harmonic
arithmetic
##𝐴𝐴
might
##pled
middle
##ids
##isted
expected
smaller
##lo
situation
proofs
##12
create
particle
run
rho
shif
##vity
strict
able
task
##osite
exh
osc
##ather
langu
jacob
hypoth
induced
arra
white
##algeb
##ules
output
tell
domains
cut
hold
drawing
suc
red
link
sparse
pass
controll
##ning
##ural
alg
##read
yields
08
##lev
lik
perfect
oscill
effective
sentence
counter
often
display
formulation
joint
user
##ling
computing
buil
completely
possib
##lusion
##ming
##ently
experiments
##sign
##lected
extensions
cluster
covari
##mann
available
written
holomorphic
had
pure
##con
pen
consequence
los
spatial
homotopy
hypothes
cone
board
vel
converges
put
bundles
sugges
cyclic
useful
satisfying
lif
zeta
rigid
##aran
gau
assign
precal
bran
conformal
distin
previously
max
statement
mac
topic
bal
##ture
effect
##vable
##aneous
##less
binary
##ularities
current
theories
modular
##ott
strongly
asymptotically
##back
still
##ploy
##rown
starting
90
##ude
equilibrium
mil
conjug
decimal
derivatives
tangent
hopf
eigenvalue
fast
guaran
uniformly
guarante
limits
better
dot
comparison
dirich
metrics
##br
##enth
##𝟗𝟗
integrable
##ues
dirichlet
language
ways
diver
posed
##ark
materials
sampling
banach
monot
lagrang
regim
singularities
coding
decay
devi
gap
geodes
##pot
criterion
horizontal
##hler
aw
brown
rings
date
##resh
measurement
accuracy
##olation
needed
scaling
tools
percent
##isely
##hed
diagonal
classify
water
ord
var
bod
##pped
herm
isom
subtraction
trees
making
role
09
author
choice
##fficiency
##cepts
interference
channels
##aster
rotation
ret
statistics
##lier
depends
cdot
bro
duality
latter
precisely
record
connections
##ements
segment
bor
instead
##ogram
##ppa
simulations
choose
reconst
access
estimator
diagrams
gauge
sens
six
fac
##sur
post
piece
45
nodes
##bo
distinct
represented
princip
31
requir
years
decre
required
ful
comma
works
mor
elementary
##lear
##to
discreti
torus
deform
efficiency
purpose
##he
increasing
transition
lay
recover
idea
coefficient
##omen
bf
conser
round
laplac
development
ordered
mapping
graded
##𝟖𝟖
admits
parabolic
proportional
kappa
tow
lead
walk
solved
##ledge
sn
coinc
##ape
complement
combination
argument
thresh
##ices
𝟏𝟏𝟏𝟏
##𝑥𝑥
##itive
admit
##ood
##arg
pack
university
lagrangian
scen
transi
variational
##day
##ocity
##ametric
goal
constraint
domin
additive
##uts
loss
reflection
velocity
phen
isomorphism
subspace
##ode
scenari
correspondence
pric
knowledge
taking
##enting
planar
explo
##lex
position
notes
bre
depending
lem
object
steps
xn
##ocks
util
start
##ching
##utive
earlier
alternative
cup
users
vare
fill
principal
relate
varepsilon
sure
ideals
cubes
prot
differenti
gain
achieve
feet
band
37
multipl
grid
accord
phenomen
feed
enough
##ruction
schr
##ians
𝟔𝟔
##hn
polar
shapes
pseudo
nu
treat
enti
##surf
regard
ideas
##place
grade
unitary
##ale
hypersurf
indiv
##iti
exponent
cubic
lip
absolute
neighbor
ke
subject
inches
##mer
ann
##ariant
rather
denote
weights
erg
##odic
notice
laplacian
quantities
##sem
eng
##taneous
topics
ske
respon
diffic
cube
199
difficul
extends
ram
nil
−2
ground
##ient
move
##ining
employ
contr
##ski
dots
according
verify
correlation
temperature
na
exc
ergodic
studies
##dinger
cards
ow
brownian
ric
naturally
sci
particles
00
consists
probabilities
sufficiently
syn
projection
polyg
##ensive
orbit
specif
actions
subgroups
##med
##osen
𝟏𝟎
##𝟕𝟕
compo
investigated
computed
patterns
thin
coher
motivated
five
green
takes
li
trace
##cd
prop
##owers
incor
includes
deformation
ly
approximations
##orous
##ittle
array
educ
modeling
##isms
simplic
##otrop
unb
coll
equivariant
regression
polyt
dynamic
conven
torsion
subsets
analogue
belong
107
continue
presence
roots
processing
relev
##schitz
deduc
want
features
containing
determinant
adaptive
psi
##inal
cyl
bir
adding
assessment
39
cycle
coupled
ordinary
42
applying
forward
during
##ses
expressed
x1
fiber
entire
expect
bin
##ested
threshold
fail
specifically
##ois
education
account
little
##ines
resol
abst
assuming
##ath
partnership
yes
generalizes
analogous
##des
##zed
##ification
bott
fully
##inear
##reless
##ormal
concepts
38
feedback
neum
wireless
##imin
knot
oo
requires
rectangular
simultaneous
mach
lipschitz
explor
decoding
mill
personal
elect
strictly
##af
nb
vanishing
##ars
surve
degenerate
multiplicative
world
adjoint
cycles
contact
##metric
powers
##ring
neumann
##potent
links
##olev
string
vir
zer
anten
antenn
response
##ined
jum
concerning
uncertain
resear
##ilinear
simply
variance
substit
twisted
sob
decision
##kin
practical
##imension
ber
event
usual
##ially
paths
##riting
##ek
py
flows
coupling
interpretation
tape
sobolev
perp
##ky
selection
ren
hypothesis
𝟏𝟏𝟐𝟐
my
##ests
onto
reach
done
kind
leading
bag
##xing
observed
ve
hours
monoid
arc
constants
price
anti
##ibit
variation
delay
preserving
##esian
chi
authors
research
constructions
regime
though
body
orbits
jus
dirac
picture
try
arising
##instein
infinitely
mim
deterministic
restricted
logarithmic
hier
ul
behaviour
interaction
propag
advanced
deal
correc
##bility
directly
jo
empir
homework
##ˇˇ
generally
embedded
ir
ldots
individual
weakly
hierarch
##isation
chosen
cour
potentials
##tinu
##itian
turns
divide
automorphism
concent
diverg
reduce
##for
directions
mess
labeled
intern
explore
ris
y2
adic
incom
##ley
pm
tail
invite
54
##manif
galois
clear
opposite
iterative
targ
exhibit
day
##ius
traject
##oper
generators
cauch
##okes
fib
embedding
hermitian
##inder
cauchy
approximately
weyl
relay
heat
##eters
contrast
abstract
conditional
bases
##pr
##icular
null
going
straight
𝟕𝟕
stor
##ontinu
62
lemma
rightarrow
justi
zeros
itself
integration
fit
conserv
##ites
coroll
##rst
##wb
𝐴𝐴
𝒚𝒚
scattering
goes
produce
refer
a2
subc
blow
errors
transport
drawn
278
observations
arise
newton
rules
perturbation
accurate
characterized
converge
a1
ens
avoid
computer
polic
happ
identities
comparing
##though
##aries
##joint
odinger
chart
##sitions
survey
correctly
although
du
offic
precise
becom
lessons
exponents
##ont
evaluate
replac
##ev
80
morph
blocks
##tically
mut
jacobi
matching
𝑨𝑨
##irm
stokes
physics
##bs
##ems
collection
analytical
##dor
leg
describing
obst
memory
limiting
##ople
iden
relevant
noncommutative
##eli
fut
people
conv
functor
277
width
quar
relationships
dr
nonn
deviation
##off
##x2
inner
tight
considering
##ready
##tri
haus
already
##ands
ﬁrst
##tible
samples
evidence
imag
##rob
##ght
rigorous
translation
##otropic
##point
mes
maj
constrained
##reg
necessarily
meaning
iss
perpend
𝟖𝟖
office
modified
##imeter
𝑦𝑦
proving
ll
perpendicular
##ention
build
env
43
magnetic
##inger
increase
inside
intervals
##range
break
dt
##ibility
##ribed
trig
largest
sket
advant
laws
splitting
estimators
einstein
shad
operation
fluid
teach
notation
##lu
ben
##𝐮𝐮
quantization
constructing
solit
oth
search
writing
conclud
##iron
explan
spherical
programming
cart
##func
smallest
atten
vi
future
hat
resolution
permutation
hausdor
asp
refin
circles
reco
ricci
templ
symmetries
waves
x0
areas
dependence
miles
prof
consistent
conduc
beam
nonneg
##medi
y0
rectangles
##ograph
becomes
##enberg
##ased
hausdorff
equals
node
dense
changes
contained
representing
mimo
ln
own
others
##phi
strength
##algebra
tenth
##ounded
##ortun
2014
stabil
signals
##den
geodesic
skew
driven
travel
possibly
##anning
dy
numerically
composition
congruent
target
arguments
entries
varphi
##ogn
tal
configurations
nontri
moving
across
##ah
solid
##ished
nontrivial
environ
toric
singularity
easy
##𝟏𝟏𝟏𝟏
empirical
today
regions
##14
##zz
differences
money
typical
challeng
subtract
mic
linearly
slow
generate
transfer
situations
iii
directed
##ocation
##elihood
##by
filter
template
iteration
prism
describes
once
major
configuration
likelihood
2d
##eld
75
ratios
ensem
involves
knots
away
ferm
nonnegative
fal
lattices
experiment
arch
corresponds
games
effects
mechanics
##ameter
bay
light
layer
suggested
cylinder
diffe
symbols
therm
rew
##omin
##opes
land
##umer
55
nonz
recogn
criteria
moments
cen
fold
essential
submanif
reve
improved
achieved
##pec
##ressible
relax
notions
tot
doub
44
m6
complexes
segments
nilpotent
##action
poinc
seen
centim
success
visc
resour
selected
adjac
##comes
autom
sections
nonzero
sup
conjectured
##vier
instance
upon
limited
arx
nearest
covariance
##oks
partitions
laplace
corollary
mer
acting
arxiv
##ceed
reconstruction
risk
##amp
##sym
interior
##tz
##finite
shift
g2
later
##abla
hist
introduction
bern
cat
nabla
prom
significantly
##tu
##ipar
said
permutations
##ocol
nature
increases
𝟏𝟐
attention
fri
##ions
location
parametric
rows
##iom
quantity
margin
restriction
subspaces
##enge
##ales
##angle
assumed
divisor
building
bs
##time
piecewise
rise
##raphs
𝟗𝟗
observe
separable
bit
detection
receiver
coherent
sketch
overline
ray
198
##rence
continuity
perimeter
visual
blue
asymptotics
##hol
compati
examine
mesh
giving
outcomes
interpre
##eq
extending
fram
##ocal
consisting
providing
discontinu
41
easily
equi
cha
essentially
axiom
probabilistic
appears
conjectures
cla
encod
unl
black
challenge
−3
##ls
formulated
doll
versions
##tingu
stack
distingu
relies
##ints
##culus
press
minimization
broad
extra
repeat
select
virt
varying
##lin
g1
active
geo
flo
g7
plus
ahler
##assive
bond
swit
##tite
cardin
monotone
orders
primes
deduce
rever
missing
precalculus
impo
unbounded
oriented
studying
dilation
##eb
##rack
generalizations
spr
algebraically
##encies
actual
diameter
too
false
course
##ortion
keep
ft
c2
countable
eta
stri
statements
ml
##puts
calculations
taken
enumer
simplicial
triangular
perturbations
stic
covering
bb
bene
𝑎𝑎
##hat
showed
chains
caus
c1
defining
independently
##roben
##atory
conclude
yang
3x
determining
pain
logic
figures
##endi
##ms
multivari
supported
##aff
froben
vor
##fully
##lectric
disjoint
##ford
##oura
fo
interf
opportun
story
tables
measured
deep
relati
##tt
g8
trigonom
working
##izer
frobenius
final
distances
soc
alternating
##ories
amplit
##ited
tests
come
extremal
thous
divergence
member
presents
automorphisms
commut
trunc
descent
functionals
##ateral
recovery
shall
##aw
implementation
closure
interactions
upd
##ren
##ryst
computations
discretization
factorization
uncertainty
mc
equality
images
##iers
care
optimality
88
force
##ogen
organ
yau
##tors
formulate
regularization
46
mm
jump
plac
espec
derivation
expansions
exponentially
70
insp
needs
lor
fu
calculation
##ille
pay
##sities
especially
propagation
tan
until
deformations
usually
discover
sheaves
remark
chern
g6
##eler
modulo
machine
conclusion
##ended
union
interpolation
bif
##unov
cooper
detailed
presc
confirm
talk
##ience
convolution
##romatic
bipar
similarity
arrang
combined
recursive
y1
observation
##ched
wall
##come
##tative
subsequ
fair
ol
rn
99
foli
penal
win
##ril
parametri
recall
equipped
navier
bold
proven
quantitative
quick
49
ste
##owski
closely
ﬁnd
soft
respons
scenario
responses
pub
drawings
##eady
don
gall
book
multiplying
groupoid
poster
##cop
brief
emer
arbitrarily
##rete
etc
claim
3d
rou
arri
fourth
supports
eigenfunc
mixing
receiv
g4
associative
tends
become
randomly
reference
rough
ing
environment
2k
partially
spheres
##sip
quotients
##ometric
##har
yet
estimating
##val
remaining
proportion
gover
##ditional
neighborhood
subst
stage
identified
##atern
tenths
generalizing
##ips
grass
##racting
simultaneously
solvable
indeed
##brid
invariance
formalism
treatment
64
identical
allocation
ec
##sl
thinking
denomin
particularly
neural
emphas
child
master
lyap
added
except
##ulations
phenomenon
##urc
momentum
##ground
triple
spectra
##abi
yield
xy
##ector
##ppings
180
##ne
reli
##use
##ze
remains
##𝐢𝐢
rely
encoura
resid
feature
rest
aspects
quite
hod
disk
g5
exch
hundreds
internal
atom
analyzed
bes
reson
towards
multivariate
colored
lyapunov
##local
poss
actually
policy
##scr
tex
quatern
polyhed
##imod
balance
circular
ast
hyperg
bipartite
systematic
fish
##endence
intersec
possess
##entioned
df
says
−𝟏𝟏
residual
simplify
convers
ep
otimes
totally
sine
##ium
walks
conventional
##algebras
##chron
bifurc
columns
𝒂𝒂
##min
highly
bottom
mathscr
efficiently
sensing
##lass
applies
steady
divided
##11
56
##cing
np
protocol
##rins
never
##bles
##comp
##rad
training
relatively
scales
gauss
testing
deﬁnition
canc
g3
quadr
achievable
feas
primitive
longer
borel
##roid
##uctu
elastic
##mediate
whenever
coloring
levels
variant
trade
acceler
characteristics
##imals
concrete
##dition
fluctu
cryst
dissip
norms
suggest
##ecke
##itions
##hing
mappings
electric
oa
##ano
backward
multiplicity
cp
modeled
prediction
nor
congruence
##olated
quadril
##entz
mild
bayesian
calabi
semic
repeated
##vect
ba
ult
##jection
hypersurfaces
cand
lies
normalized
schur
52
attem
flag
##ﬀer
background
pieces
designed
inference
denoted
##tine
addressed
##ker
##sf
kernels
enables
r2
tur
##enstein
track
sizes
##ged
desired
involved
unst
sprint
surpr
##acti
specify
##ordan
subseteq
days
magnit
events
densities
gk
illustrated
𝟐𝟐𝟐
localization
schw
freed
implicit
highl
gravity
##isim
decompositions
gas
massive
##ander
papers
##view
subm
structural
transitive
##pro
injective
conservation
return
seconds
summary
##−2
moves
explanation
faster
comes
##bes
gro
spars
##aul
depth
##cdot
hybrid
indicate
outer
##ging
parallelogram
difficult
extern
boldcdot
hecke
reflec
##aps
##iar
copies
arises
justify
estimated
##ez
hodge
calculated
outside
stein
noether
##gs
recurrence
semigroups
pk
rewr
kin
cus
viewed
balls
pde
reduces
generation
recip
##encil
pound
rich
covers
que
##geometric
extensive
included
x3
differentiable
conjugate
codimension
transforms
inclusion
posedness
poincar
elimin
##ulated
grom
cells
serv
##ville
opening
purely
insi
independence
diﬀer
involve
##cyc
cellular
improves
wa
primary
consistency
grassmann
105
mir
𝑏𝑏
tilde
##oted
reaction
counterpar
settings
minute
hyperpl
centimeters
graphing
likely
md
##ss
combining
performed
similarly
von
characters
compacti
disper
nois
distributive
binomial
##ones
frames
##air
##ening
guarantee
vac
meters
definite
lorentz
sched
##ionic
remainder
##copic
incorrect
hierarchy
external
empty
homomorphism
witten
bey
connect
formulae
message
matter
satisfied
prescribed
flux
cardinality
sources
antenna
hypersurface
allowing
##ai
experimental
beyond
##ware
monomial
gromov
reveal
freedom
au
cruc
embedd
decreasing
selec
page
radial
scenarios
median
coincide
fading
adjacent
person
instant
demonstrated
compan
art
bis
47
inform
inspired
initi
teacher
##ologies
72
month
face
fract
197
occurs
posterior
clar
bill
##sibility
pressure
104
##gue
##tives
typically
##homogeneous
bc
##ata
circum
pyth
nonlocal
player
compatible
overview
spl
dg
generator
costs
relaxation
toward
isometric
faces
pencil
bul
##osing
slight
evaluation
averag
brack
hardy
coincides
incomp
improvement
##13
monte
flex
admis
popular
##rinsic
sided
facts
incorpor
contribution
continuum
influ
magnitude
##−𝟏𝟏
relating
heter
semisim
𝐜𝐜𝐜
##kowski
renormal
quality
ce
agents
advantage
enh
minimizing
guide
concerned
interacting
trajectories
skill
invertible
supersym
spacetime
summar
##rates
𝑓𝑓
brid
things
trigonometric
carlo
ingred
##vistic
##tures
asked
guarantees
sensi
surprising
##oud
ﬁn
exhib
sparsity
tu
bur
composite
priori
##uit
week
letter
sometimes
storage
unified
roll
throughout
##atch
old
imply
−𝟏
disks
##tiveness
eigenfunctions
effectively
##ita
digits
mixt
kle
inde
##ious
##ights
excep
##cessive
benef
contrac
technology
attain
reproduc
cs
wind
globally
monotonic
ensure
stronger
jordan
##ader
htt
realization
##agn
produces
amb
##izers
regarding
iv
mode
mirr
##eless
evol
denotes
interested
arrow
convexity
polytope
ho
compe
ensemble
ai
exceptional
##idden
determines
introducing
effec
allowed
boundaries
squared
priv
intercept
exter
copy
rs
##perform
mathsf
consequences
divisors
cox
combinations
achieves
##box
mr
charge
crossing
𝟎𝟎𝟎
2m
isolated
polytopes
veh
thom
projections
colour
gp
liou
coh
outperform
##uer
##ember
irrational
𝒃𝒃
synth
exchange
forcing
proposition
eigenvect
extreme
semisimple
technical
drift
##ee
looking
decide
throughput
interface
complic
additionally
simpler
hypergeometric
##𝐀𝐀
convergent
120
exterior
contrib
minkowski
concentration
##iss
progress
uniquely
filt
orbif
pick
kine
widely
acces
##rod
heis
changing
𝒇𝒇
past
challenging
##ili
pythag
marting
online
##osity
applicable
crucial
age
scaff
##right
assignment
amen
##ko
##ato
twice
traditional
##ction
functors
chance
chromatic
virtual
##well
##izable
heisenberg
##erti
branching
unlike
bos
belie
experience
maximize
encourage
gir
𝟏𝟓
expectation
nbt
neq
variability
endow
reasonable
specified
carry
effectiveness
polygon
discontinuous
##els
rd
63
air
##points
manner
phenomena
01
96
lebes
team
scienti
##pective
prepar
content
liouville
bilinear
##ery
envelop
##ken
categorical
interpreted
offer
definitions
boole
received
scaled
dividing
intended
##ending
##quo
fif
lebesgue
##orean
stre
impact
smoothness
minimize
trop
importance
separation
##odynam
frequencies
against
distinguish
replaced
bbb
##acle
##ush
artin
65
admissible
##urable
digital
##wid
subd
penn
traffic
designs
perspective
older
amplitude
decompose
children
##kov
learned
chem
pythagorean
cones
98
##atz
##ouse
500
##lor
deﬁned
beamform
##ords
##roscopic
analogues
##ancy
𝟐𝟐𝟐𝟐
restrictions
approximated
53
consum
pu
obtaining
−4
whereas
boolean
antennas
mirror
devoted
formed
##ham
classwork
apart
successive
characterizations
##ulli
tensors
sz
##roids
dollars
unstable
bm
anis
resource
implic
##𝐬𝐬𝐬𝐬
##chm
seems
immer
attach
berno
twist
noisy
acts
infinites
war
medium
relativistic
cosine
rewrite
incompressible
conjugacy
##odrom
perturbed
gram
intu
05
asser
##vin
##oo
##ondition
bernoulli
𝑃𝑃
controlled
gor
##ivari
easier
tay
cros
plots
##isc
collec
transmitter
completion
##eak
cach
##name
##avor
cartan
denominator
tropical
##be
recognize
57
planes
##kage
##way
operatorname
absolut
##order
persist
##atest
taylor
intrinsic
motions
imaginary
vehic
mechanism
iterated
converse
locus
##width
nearly
ko
vers
clock
##ean
cocyc
subalgebra
bic
##sable
𝟏𝟏𝟑𝟑
rigidity
submanifolds
transvers
familiar
agree
##ball
##exam
govern
hundredths
synchron
presentation
plays
boundedness
nbsp
absolutely
##otom
followed
predict
2y
compactness
deformed
overl
opportunity
life
##ival
prefer
##romagn
leaves
grows
oscillator
fusion
ds
##cs
##vent
b2
##ering
##olding
sto
som
sd
sentences
braid
m7
##ecture
viscosity
percolation
##abor
constit
##uristic
tempor
happens
rf
##ulate
pointwise
geodesics
service
balanced
choices
pdes
calculator
##anov
divisible
textit
compress
morphisms
cusp
##oles
marked
simplified
intermediate
erd
𝟐𝟓
planning
zh
modes
##ivariate
connectivity
members
considers
lagrange
issue
attrib
principles
overall
centered
robustness
ordering
http
termin
𝐜𝐜𝐜𝐜
##sh
##𝐢𝐧
noncon
##𝐭𝐭
adapt
51
##agement
##ecutive
city
fing
vacu
embeddings
meet
beginning
integrability
complicated
slightly
reductive
structured
kinetic
attract
combine
distortion
polygons
kac
revis
inputs
morse
multiples
consequently
##ris
da
static
coin
realized
measurable
cdots
klein
correction
whe
remember
implemented
starts
##¯¯
employed
cot
hit
highest
investigation
doing
##erkin
belongs
##yclic
galerkin
4x
tom
mentioned
reform
##where
cay
inch
decimals
agg
discr
pounds
fall
##ativity
identifying
78
letters
##ellation
procedures
quiver
##head
methodology
snr
trajectory
computationally
carri
induction
##rag
built
aug
iterations
fingers
##ck
##uling
geometrical
science
##ustom
agent
geometrically
analyzing
2777
discrimin
passing
##inf
cups
##imensional
solves
paul
##𝑩𝑩
isotropic
cohen
##io
circul
300
thereby
heuristic
gib
−𝟐𝟐
spread
front
##leb
thermodynam
proves
cas
maxwell
benchm
##22
colors
analytically
##𝐥𝐥𝐥𝐥
cn
##romagnetic
##sions
bifurcation
entangle
isometry
pairwise
counterexam
rap
intersect
##loor
micro
neither
bus
calculating
58
##rew
regularized
custom
precision
k3
shaded
fluctuations
fer
radio
quadrilateral
variants
engine
##pc
bijection
linking
communications
greatest
entanglement
slice
positivity
automatic
##essel
curved
deals
won
utility
##𝑫𝑫
combinatorics
grad
adapted
d2
exploit
##ressive
##orov
adop
endowed
kil
shor
nonlinearity
molec
stated
equivalently
compression
##co
##reh
coar
soliton
hyd
sharing
pd
morphism
beamforming
trap
coxeter
introduces
devices
compreh
fix
crossed
commuting
concave
defines
association
##ake
##iral
contraction
complementary
continuation
speak
thousand
score
fewer
modify
qual
variations
demand
2t
hex
radical
proxim
measuring
otherwise
cayley
species
monodrom
foot
young
localized
pyram
modulus
gets
truncated
correlations
indices
infinitesimal
connecting
details
𝒎𝒎
completed
##rating
##plex
##oidal
players
hu
properly
##tured
minor
66
clustering
##𝐷𝐷
evaluated
bol
market
##regular
possibility
##iction
accurately
tun
rein
span
sequential
nom
##yle
𝟐𝟎
attack
damp
##stood
groth
feasible
##rodynam
evy
induces
tut
multiplied
unity
eight
##25
subtracting
##ologically
ends
##endieck
understood
2018
gave
##vit
gorenstein
carried
##fies
150
hidden
parity
recipro
establishing
grothendieck
monoidal
weaker
exploiting
73
sheaf
mechanical
modulation
##sel
strip
##ilit
##ceptions
inhomogeneous
preserves
spac
##ns
inher
convert
𝟏𝟏𝟓𝟓
legend
mixture
hypotheses
##cl
##rin
##ounts
subgraph
axes
##tilde
##harmonic
precod
covariant
coarse
−𝟐
##000
powerful
issues
mainly
stop
places
spanning
widetilde
archit
sal
alex
##𝒚𝒚
interactive
computable
ran
𝟏𝟏𝟒𝟒
ultra
filtration
findings
algorithmic
identification
##ray
jacobian
holonom
terminal
guess
anisotropic
cartesian
instances
aggreg
conversation
load
dn
##−𝟐𝟐
temporal
device
vacuum
##sey
graphical
outcome
196
separate
csi
consecutive
59
##iteness
rotations
deviations
cycl
68
noetherian
##rable
arrays
queue
highlight
exhibits
95
correlated
##16
wil
##onomous
heav
amenable
unf
scheduling
interpol
𝑚𝑚
##𝝅𝝅
##recy
multis
secrecy
sensor
##imed
relates
##gl
##verse
schro
##minus
##oi
landau
##plus
generalised
net
york
multiplier
multid
a0
satur
##fs
suggests
##vability
hyperplane
##arz
influence
lack
##versity
preserve
constructive
cooperative
attrac
ij
branch
mutual
lot
tori
hexag
homogen
statistic
causal
substitution
monotonicity
##anu
##𝐟𝐟
cob
controller
messages
parad
semide
loops
𝟏𝟏𝟎𝟎
sheet
##oph
##edy
requirements
remov
kinds
##ored
eras
stick
rapid
exceed
histogram
associate
gibbs
sad
##cale
monodromy
multic
tiles
earn
𝐜𝐦
minimax
fails
kh
arrange
aux
##rich
competi
##ialgeb
fano
82
##orted
antic
window
hamiltonians
clarify
##𝐏𝐏
clearly
martingale
2017
##fi
##𝐨𝐬
orientation
setminus
quickly
briefly
shorter
wiener
collision
wed
items
inversion
decrease
bits
##𝐨𝐠
penalty
##omal
really
67
##ew
manip
##teness
##𝟏𝟏𝟐𝟐
precondition
approximating
##schild
stream
##stra
diffeomorphisms
##ade
##ellip
scientific
sie
diversity
stress
𝐬𝐢𝐧
##ructions
seem
gravit
nuc
clif
datas
multipliers
submanifold
ruler
400
##ister
asking
##cent
##omb
##ography
supersymmetric
scaffolding
closer
marginal
b1
favor
mob
admitting
81
helps
residue
##anes
##urity
observables
started
buy
##sm
##bur
pull
item
unital
orientable
𝐢𝐧
bell
##ensus
##idi
matches
multidimensional
sun
peak
##𝒃𝒃
alphab
boxes
endpoints
created
anomal
geometries
##ﬃci
##iffer
covered
pennies
advantages
equally
##anges
signature
##forward
mos
consideration
desp
software
##ca
shell
got
##onn
discovered
linearized
validity
simplest
intersections
##space
##ij
##ote
##roduct
##𝟏𝟏𝟏
##𝐚𝐚
coming
broadc
strati
bandwidth
social
regimes
somet
##odal
##elliptic
𝟏𝟖
decoder
something
angular
tract
minus
spatially
fourths
volumes
##𝑨𝑨𝑨𝑨
switching
𝐥𝐨𝐠
ries
drinf
profile
##hl
despite
##rations
##uing
progression
maintain
##ats
##selves
kill
reviews
macaul
besides
85
pet
trapez
worst
stopping
hur
semidefinite
auxili
macaulay
𝟏𝟔
##ores
former
house
ins
auxiliary
cf
e2
evaluating
e1
##abular
pointed
choosing
##uth
wants
tower
counterpart
heavy
𝐵𝐵
reverse
r1
y00
##tw
homological
bessel
𝑷𝑷
standards
adjust
outl
ga
𝒕𝒕
riesz
𝐜𝐨𝐬
certi
ak
composed
𝟏𝟏𝟏𝟏𝟏𝟏
packing
difficulty
encoding
##edit
toe
threef
detect
numeral
eigenvectors
##lement
bax
##plete
faith
##ugg
clusters
##pts
setup
separated
poset
thought
pt
cum
##bf
picard
thick
books
betti
vert
##oso
##40
gold
jul
##yi
modern
conceptual
happen
public
03
continued
##ecompo
baxter
resources
fem
augment
ﬁnite
tasks
2a
fractal
##exp
##texts
refinement
𝟏𝟎𝟎
room
##plitz
##eller
cosm
gains
refined
##link
1000
##vities
signed
smoothing
instruct
compressed
produced
ale
nonconvex
##dm
hull
treated
vanishes
attempt
submod
bridge
contexts
john
famous
u1
##antine
mbox
##bon
passes
toeplitz
##ordon
dar
coded
focusing
orbifold
8wb
gordon
formation
mas
entry
jumps
##kl
##vation
##pher
ru
replace
nice
hypergraph
bracket
handle
parabola
pp
finish
deﬁne
##ystem
inﬁn
wheel
quantized
##𝐶𝐶
determinants
growing
nonpar
equilibria
##𝐵𝐵
displac
skills
pac
ability
report
predictions
lass
punc
proceed
hole
clifford
##iﬁ
##ffer
##itative
formulations
classified
randomized
asymmetric
jointly
hall
saddle
pn
ple
ur
commonly
generates
##lished
##pos
bias
##que
##oto
tall
##18
ker
heterogeneous
reducing
raised
##imedean
##iet
##emp
conservative
qualitative
##enb
confidence
##nik
##23
placed
cam
autonomous
7wb
update
gallons
kol
trac
##𝟐𝟐𝟐𝟐
−5
optimize
descriptions
bulk
quantify
schwarz
𝟑𝟑𝟑
modification
earth
floer
##orial
seven
170
tax
##singular
cri
idem
econom
𝐴𝐵
##jan
simulated
governed
pas
##28
colon
developing
downlink
receive
##idel
175
eventually
gene
##ura
ded
secondary
110
site
miscon
gaps
wish
transc
candid
equid
dm
##za
##unch
neighbour
pyramid
##−3
expanded
running
##zy
benchmark
##ket
positions
ready
remind
##udes
##sis
collect
nonparametric
attached
infer
##amard
looks
hadamard
fibers
mad
shifts
weil
challenges
company
v1
##go
strugg
summarize
tells
−𝟑𝟑
primal
nash
rain
compactification
corner
implications
𝒙𝟐
##zations
ﬁeld
##dv
located
##scribed
p1
2010
hoch
dioph
##compact
arcs
quand
originally
subalgebras
capture
mills
p2
##wood
receivers
foliation
##gel
absence
ensembles
##ymbol
accessibility
spre
##kins
store
che
symbolic
cant
z2
bodies
avoiding
axioms
tet
##otted
media
##gman
surjective
locations
##lish
ingredient
beh
mn
rays
vo
obvious
𝟐𝟐𝟏𝟏
quarter
##etz
##ghts
averaging
##fications
performing
2013
assigned
vide
outage
fibration
diophantine
indecompo
collected
consumption
𝑨𝑩
coherence
referred
unimod
roughly
hig
fisher
speaking
engineering
creating
indicated
requirement
insights
##sler
surger
##aux
electromagnetic
##lov
obstruction
si
outperforms
traveling
86
fine
##acci
concerns
touch
pal
rangle
ramsey
##under
played
jam
appearing
wat
absor
policies
##ders
##adic
77
bolds
mobile
security
involution
celeb
finiteness
v2
programs
transformed
lifting
realistic
##rog
homomorphisms
hum
translations
birth
remarkable
tub
69
##eterm
sle
##ini
spring
195
voc
##ighted
expanding
agre
flexible
##room
chaos
misconceptions
continuously
dispersion
isos
aloud
logarithms
meta
motivic
dilations
thousands
ee
𝑛𝑛
##unction
transitions
##kh
finsler
tend
tate
##ani
automorphic
boltz
drop
phases
chaotic
drinfeld
thesis
lowest
straightforward
diffeomorphism
##sky
compressible
cohomological
s2
sort
wavelet
recovered
##𝑦𝑦
##ellow
superc
improving
##abulary
vocabulary
hes
boltzmann
simplex
hermite
kir
##ients
cook
ts
characterizing
replacing
##ody
carefully
boldsymbol
sand
shifted
establishes
named
##mc
indexed
lasso
solver
edu
misunder
76
ps
fibr
exploratory
friend
paint
##rightarrow
ech
teich
controls
early
archimedean
pil
##igner
fd
##zzy
respective
achieving
89
irregular
quaternionic
misunderstand
sell
benefit
##oids
shaped
##ih
standing
reliability
port
##vich
rescal
##position
##deg
langle
supplement
integrated
𝜽𝜽
broadcast
harves
84
##arity
minimizers
semilinear
packet
kg
bonds
upl
quiet
die
fx
##lassical
portion
𝑩𝑩
##enn
particip
classifying
finds
triples
parametrized
lax
112
layers
eaves
##19
greedy
suitably
neut
meromorphic
eavesd
solitons
aa
sas
reflect
groupoids
enj
oplus
superior
analyse
##ident
##ifies
increased
##tivities
##ert
fuzzy
fock
hint
ns
vl
aims
##𝐖𝐖
##onacci
##idem
sg
##indric
inductive
##ographic
decreases
employing
leib
##elli
cumul
sus
indecomposable
energies
surely
regarded
stret
subcategor
cantor
rib
##eles
preserved
guaranteed
breaking
wigner
forces
proposes
closing
##𝐴𝐴𝐴𝐴
##hd
perturbative
arrangement
83
##itor
alphabet
yellow
option
conclusions
maximization
privacy
misunderstandings
classic
##llll
saw
leave
##hoff
2012
dissipation
##ilities
xx
topologically
nets
fred
coins
widehat
serve
sensitivity
diﬀerent
liqu
enter
consensus
completeness
getting
outputs
destin
grassmannian
##vection
compound
occup
intersecting
schu
lever
indicates
##burg
##onality
saving
−𝟑
subf
𝟐𝟐𝟓𝟓
shadow
lu
##lets
thirds
birational
125
ambient
contributions
shared
##ecting
reading
plate
validate
##ifications
##ˇˇˇˇ
matroid
polym
counted
chow
instability
littlewood
lus
tank
uns
attributes
##esis
rigorously
discriminant
##asser
cars
2011
lift
##ifferential
quasic
germ
sv
spir
pin
conformally
pictures
©2014
strings
codew
shortest
mist
gin
incomplete
published
doesn
gravitational
byp
arti
ger
hierarchical
sf
enable
rc
translate
##ficial
resonance
video
underline
−→
derivations
endomorphism
counts
transversal
kos
##str
fn
frac12
teichm
renormalization
crystal
wise
robot
pool
sho
surprisingly
isometries
jones
reinfor
selecting
replic
mag
realizations
##verses
##𝐐𝐐
abc
themselves
2𝑥
careful
dro
killing
predicted
agreement
semist
kilogram
answering
behind
eg
firstly
5x
##onormal
chec
intensity
appropriately
domination
##𝑎𝑎
sectional
79
𝒙𝒙𝟐𝟐
inscribed
chord
ms
overcome
bimod
f1
##icz
distinguished
ju
halves
theoretically
quadrature
##uff
noma
offers
atomic
helpful
sett
revisit
schubert
##𝑏𝑏
##aker
##64
lp
nf
169
insight
uav
integr
mathematically
populations
substitute
doubly
mastery
grams
diffu
bialgeb
demonstrates
dissipative
subvari
secure
macroscopic
bn
focuses
dog
cocycle
sel
blank
##ination
decomposed
circumference
valuation
argue
##endix
tutorial
jack
##sto
dele
deriving
##rim
tradeoff
verified
𝑥2
impos
𝜃𝜃
comparisons
faithful
job
##mon
feyn
alternate
reciprocal
nx
appendix
recursion
imposed
gelf
##enew
hypergraphs
uplink
bethe
percentage
identically
dz
##ceil
nonc
acqu
labels
##𝟎°
lef
combines
coverage
eq
##orts
summation
english
6wb
developments
proximal
feynman
advers
lf
nonemp
definable
endpoint
foliations
optical
scre
u2
liquid
sold
averages
chemical
beans
formally
compactly
02
ansatz
brauer
##34
##ield
reliable
cancellation
sat
meter
kolm
##omm
motivation
redund
bank
##𝑪𝑪
emphasis
oc
ampl
holonomy
kolmog
corners
reflected
wedge
bernstein
##artz
dollar
initially
polyhedral
##rov
fibonacci
subclass
##otomic
wasser
xj
shann
##igne
##𝐮𝐮𝐮𝐮
nonempty
assessing
filling
87
94
cents
rr
ising
hochschild
##erson
robin
gelfand
𝐥𝐥𝐥𝐥𝐥
2s
##thing
##idal
##ives
##key
gpk
nodal
##oux
bring
explanations
##etri
wasserstein
97
##𝐦𝐦
decisions
ku
individuals
𝟑𝟑𝟑𝟑
kl
𝒏𝒏
##we
elimination
fibrations
gi
facilit
kolmogorov
𝑟𝑟
slopes
hessian
renew
##hr
rooted
thermodynamic
stabilization
saf
cy
##hedral
superalgebra
tracking
𝑡𝑡
##−𝟑𝟑
encoun
##eal
chiral
nested
sr
##quad
collap
imaging
𝐥𝐥𝐥𝐥𝐥𝐥
##𝑛𝑛
stations
coul
acceleration
𝟐𝒙
sector
isotop
##cher
u0
listen
##get
2000
reconstruc
tractable
##orn
curr
friends
secondly
moder
promising
charges
74
𝐟𝐭
floor
persistence
factored
periods
driving
reveals
vortex
1d
realize
potentially
ode
##wards
chips
clique
changed
deligne
intuitive
boot
runs
solvability
damping
shannon
triangulated
cylindric
resolvent
rotating
dominant
ramanu
convenient
led
##ams
shrin
enabl
train
architecture
71
##metry
##lim
matroids
##akes
divides
explored
lad
bigger
contrad
markovian
##30
orthonormal
𝟏𝟑
##haus
ramanujan
rear
𝑐𝑐
𝟓𝟎
##bl
completing
obstacle
doubling
##kay
##ectures
prisms
randomness
coeﬃci
enumeration
2009
z0
##oys
none
um
acyclic
invest
bootstra
retrie
attractor
rub
##gr
𝐜𝐜
amounts
spacetimes
deploy
complements
bags
##oro
conditioned
etal
analogy
cobord
mus
##rian
##abilities
mlr
ci
inn
controllability
specifying
n2
thing
dv
kr
sound
##mid
##cos
push
mapsto
𝟏𝟏𝟔𝟔
representative
holes
eavesdrop
kp
packets
coulomb
bivariate
sap
𝒄𝒄
apples
container
##log
thermal
unless
cogn
reflections
db
##irc
daw
caching
lusz
##enko
ample
nuclear
lusztig
##iard
multiplicities
engagement
##17
reducible
2r
failure
intercepts
##holm
2778
drew
##ston
interpreting
quadrant
##oten
gm
server
parameterized
2016
cardinal
viscous
lefsch
##witz
monoids
displacement
lefschetz
t2
##dy
2b
600
etale
nondeg
switch
ss
enl
eis
pf
##ster
purch
laur
##𝟎𝟎𝟎𝟎
𝟏𝟒
substan
ary
pairing
synthetic
destination
##lands
##hev
##ourn
centimeter
ay
higgs
##32
decent
surv
supercon
comparable
os
##atrix
tam
2008
##zing
traces
sampled
arrangements
subdiv
nondegener
caption
𝟑𝟑𝟐𝟐
adjacency
multiscale
##omain
allotted
transverse
everywhere
investigates
augmented
iw
tf
secret
discrep
ldpc
batter
hypoten
zhang
cuts
maximizing
modelling
transmitted
rsquo
secant
eavesdropper
reader
disorder
zf
##ipot
##ibr
turb
precoding
phot
posets
possesses
hydrodynam
examined
centers
performs
defect
learners
successfully
lorentzian
##imetric
##timate
##angent
cau
yo
##100
begins
##rey
reported
reflex
pan
heights
planck
else
sensors
wonder
designing
04
plant
signs
##ager
poles
𝟑𝟎
spirit
##gra
asks
##mediately
spent
##ades
##ancing
partitioned
substantial
couple
##eth
equivalences
synchronization
##ba
remo
##iles
enveloping
##nor
chen
numerous
kosz
##urm
heads
semiclassical
currents
lev
gard
sil
##atil
cle
cyclotomic
##wave
##𝒂𝒂
recurrent
hypotenuse
immediately
normality
fairly
##aton
dimensionality
kahler
tableaux
bergman
numerator
oscillations
averaged
rp
##ara
##24
normed
directional
grids
commutator
koszul
##ital
##ihil
kal
##erman
catal
vehicle
celebrated
applicability
conduct
𝐢𝐢𝐢
head
r3
##used
neighbors
filtering
thomas
ik
##y2
##ult
divid
midpoint
poincare
electron
yards
zar
triangulations
360
tack
accept
annihil
##ehler
affirm
##ogeneity
hands
##the
𝒓𝒓
approx
oscillators
##hy
61
connes
requiring
𝐢𝐢𝐢𝐢
inverses
emphasize
bd
uncount
nc
pent
cond
doc
mal
foundation
tilings
impossible
quot
paid
diagon
fredholm
encounter
characterizes
affect
extremely
surgery
bat
optimized
homeomorphic
##fined
attractive
##sen
simons
passage
decentral
𝟐𝟒
##ider
circuit
ribbon
rul
computes
mutually
determination
lamar
##ought
subgraphs
him
##racted
builds
bootstrap
distribute
addresses
binom
##ypt
factoring
monthly
##adi
diam
bx
mum
dominating
internet
finger
##𝒊𝒊
vehicles
protocols
oz
solvers
stacks
bp
accum
suprem
##period
appar
##ulse
belonging
dealing
marks
##eto
braided
##osov
##onvex
##arks
sturm
nonsingular
lea
countably
separately
2p
sq
alignment
conserved
rham
homeomorphism
spinor
ingredients
dc
isoper
join
placement
##style
milnor
meshes
currently
##pect
2007
simplicity
neverth
fash
𝐶𝐶
##𝑨𝑨𝑨
congruences
isomorphisms
skip
pencils
rela
resolutions
counterexample
nevertheless
took
101
successful
arrival
physically
tetra
92
orthogonality
purs
dawkins
##99
exploration
##0000
tiling
history
conversely
wilson
cognitive
tested
shear
rounding
oracle
##aki
feasibility
benefits
𝒛𝒛
##uk
dinger
##sin
fashion
wang
x4
worked
degeneracy
##atility
##igu
##az
𝑥𝑥2
tails
relativity
##otyp
optimum
playing
universality
##𝐴𝐴𝐴
prices
notic
esc
fifth
iﬀ
sage
please
continues
gh
##mm
thur
cheb
predictive
piz
##adjoint
viewpoint
improvements
generalisation
radians
reversible
sensitive
decentralized
gg
##sim
𝟐𝟐𝒙𝒙
relaxed
logical
gradients
monitor
quaternion
subsequent
counterparts
effort
tilting
##ened
##orem
##50
##irec
activities
##pole
triangulation
isoperimetric
##x1
byproduct
##cri
decomposing
rotate
93
amer
topologies
sticks
##slant
deli
textbf
##clock
bijective
intersects
community
fibre
enrich
identifies
remove
##uck
generically
lying
determinantal
tame
human
affirmative
alexander
a3
dl
quartic
##leigh
frak
hill
uk
##−4
az
𝑔𝑔
boards
observable
oscillatory
fermionic
ey
stan
appeared
mumford
##2x
girls
removed
𝒎∠
##ney
explained
km
𝑂𝑂
fried
amplitudes
truncation
ice
paradig
hurwitz
checking
difficulties
yi
##agonal
vertically
morita
routine
cylindrical
##rote
##ada
rayleigh
##zable
immersed
##pler
pages
straw
permits
substanti
##ticity
seman
frequently
scores
regardless
polarized
yn
𝐬𝐬𝐬𝐬𝐬
##clockwise
ounc
ty
##irable
acute
explains
behaviors
curvatures
aleph
ounces
hyperelliptic
slices
dilated
##rand
𝒎𝒎∠
##60
dimes
pseudoc
𝐬𝐬𝐬𝐬𝐬𝐬
gross
compr
heredit
##𝜋𝜋
mmwave
listed
##alth
hea
superalgebras
stories
##eks
toda
shock
subsystem
knowing
recovering
molecular
##apping
generality
frag
masses
operad
outline
rdw
𝟑𝟑𝟏𝟏
##hedron
cotangent
options
6x
𝒈𝒈
##wh
wrong
integrate
organization
nine
ter
crypt
exclud
##urb
##ashi
production
evaluations
claims
serre
private
bad
confir
dp
kar
biological
##book
bv
laurent
boys
unify
𝟑𝟔
##tr
##iski
radon
𝑨𝑨𝑨𝑨
imper
heart
𝑧𝑧
overhead
candidate
##periodic
slowly
𝐴𝐴𝐴𝐴
𝐿𝐿
activ
cylinders
idempotent
lfloor
p0
##land
ofdm
classroom
l1
##ump
𝟐𝟐𝟑𝟑
counterclockwise
##elike
scattered
witt
##gam
140
2006
langlands
arrive
legendre
250
rfloor
parenth
decou
##ankel
mix
linked
package
supporting
cooperation
certified
moderate
eulerian
rapidly
zariski
serves
dominated
xk
compatibility
supply
branched
tric
matched
journ
##formal
ros
bosonic
dise
schmid
substituting
besov
##ancial
corrections
utilizing
vec
##dx
##yshev
wrote
##y0
aspect
##coming
duplex
reflexive
mental
##ectors
reductions
filters
eigh
##isations
minimizer
2779
mile
automatically
##integ
logistic
possibilities
proportionality
dav
gar
shir
instantaneous
nondegenerate
supremum
diction
##33
##𝒏𝒏
kdv
##𝑅𝑅
fron
translated
encoded
intuition
siegel
##omp
financial
comprehensive
ellipse
equilateral
brackets
qquad
##zburg
anticip
diffusive
##anging
atoms
homogenization
xm
distributional
savings
condens
solids
perh
transportation
##pson
##fol
capable
digraph
##titude
inser
##sitive
revers
intertw
##awa
perhaps
−6
differentiation
hope
ic
𝑘𝑘
ginzburg
basket
subsequently
ei
sev
tuples
punctured
tit
textrm
excit
lb
puzz
datasets
transcendent
cul
turbul
##roph
limitations
elasticity
informal
f2
##gm
pricing
gc
weeks
develops
2005
##75
stay
latency
compositions
hankel
##set
volt
##irected
kur
##asov
epidem
erasure
teen
disag
bru
undirected
discrepancy
##ya
reasons
kaehler
##tile
plur
yielding
cray
rhom
aforem
profit
believe
trapezoid
160
induce
lit
shim
bears
aforementioned
##what
sixth
transient
microscopic
##rc
##ung
iff
lieb
##ller
objectives
yam
##mf
ergodicity
attempts
multilinear
governing
posteriori
hexagon
##itted
numerals
𝟏𝟏𝟖𝟖
moody
bloch
##−→
martin
disturb
volatility
##ipotent
food
truth
3𝑥
counterexamples
vot
somewhat
admm
##oclin
summer
−𝟒
##smooth
moser
polarization
2782
##chin
repair
circulate
endomorphisms
chebyshev
##ana
##gence
##aging
##quet
univariate
##ury
seed
varies
subcritical
haar
##bar
shed
𝟒𝟎
kilograms
monge
saying
parametrization
leibn
##boux
anosov
carries
quadrilater
darboux
lecture
deduced
ranks
quadric
bow
bisector
quadrilaterals
ign
protract
virtually
rotated
indefinite
fp
𝟓𝟓𝟓
reconstruct
stanley
broken
bacter
extensively
schmidt
management
decays
##iased
extent
asserts
##lab
million
dd
##ception
respond
enhanced
delivery
##gers
91
reser
discretized
linearization
entirely
levi
imm
rhomb
porous
##𝑇𝑇
##rill
unipotent
displaystyle
threefolds
sites
perfectly
accelerated
130
sou
𝑪𝑪
hyperplanes
caused
toler
radii
separating
##𝒕𝒕
thanks
interpretations
##rally
operating
conversion
yp
##eger
strateg
wol
−𝟒𝟒
beads
symmetri
##avity
reproducing
ck
e−
fat
electr
flexibility
criti
##iﬁc
considerations
##55
##oustic
contour
painlev
##fiable
vlasov
##sal
##bow
bab
ranges
##xn
tuple
accessible
compens
2x2
winning
cosmological
optimizing
##ivalent
schrodinger
tv
conjugation
resonances
uv
helm
branches
##app
##anned
coverings
utilize
##problem
paradigm
cause
folds
excell
semistable
evolving
pc
##poses
##−𝟒𝟒
prod
##uerre
multiplexing
las
conic
##ﬃne
filled
opportunities
subdivision
ip
similarities
increments
crossings
mechanisms
polyhedra
neutral
123
laguerre
synthesis
leibniz
##la
temperatures
justification
adaptation
##istance
superposition
artificial
lc
nonsmooth
raise
struggle
environments
2π
##orting
labeling
##load
minima
demonstrating
integrating
trying
updates
##rose
190
barrier
##pectral
##asoro
varied
𝟐𝟐𝟒𝟒
runge
dur
kron
injec
locate
communicate
virasoro
2004
charged
warm
colorings
obstructions
julia
lati
##icity
digraphs
uncon
thurston
transcendental
homeomorphisms
##tition
alone
##oclinic
800
##istence
correcting
univer
##band
twists
evolutionary
𝟑𝟐
delays
ladder
substantially
massless
uhl
analogs
##𝑷𝑷
##ymmetric
factorial
narrow
thor
metri
behave
vorticity
supercritical
t1
spline
spreading
pilot
##down
occurring
differentials
removing
shuff
##optim
unbiased
alt
pole
##une
memoryless
shade
ever
fok
expos
dispersive
versus
##uits
completes
excellent
uller
gluing
desirable
mov
assem
disco
companion
dyn
rare
102
projected
prepared
##ama
names
bayes
pati
##hm
weier
interplay
##na
lee
amp
factorizations
cb
tickets
customers
−∞
comment
competitive
mostly
mistake
noticed
adi
luc
sales
##98
hyperbol
recorded
cocycles
##bre
manipul
race
incidence
131
matchings
alloc
analyses
decode
pdf
##ichotom
recomm
elevation
observer
##ena
exploits
longest
restrict
resolve
heega
fluids
prep
heegaard
plas
##bal
expressing
partitioning
polyhedron
ww
converging
denominators
kont
##rig
generalise
3n
108
stair
leaf
enjoy
##onald
relying
battery
regret
minimizes
##linearities
collabor
lens
𝟑𝒙
quasilinear
garden
instruc
blowup
ui
pause
4n
profiles
ze
##wa
susp
border
kontse
gf
l2
##ox
##elastic
compose
characterisation
162
offline
crystall
khov
probably
##orrel
##olutions
unimodular
cookies
arm
curl
mf
𝒌𝒌
##eses
##entally
functorial
rearrang
ct
fan
##raft
nonlinearities
radiation
subsequence
thickness
hardware
##rative
bounding
ago
kre
agrees
supplementary
kontsevich
##fill
resem
##ered
immediate
bands
𝑳𝑳
mitig
bss
ek
kor
##ift
noncompact
captures
##eting
sitter
cloud
decaying
bose
bought
birk
behaves
normalization
quandle
cast
mutation
trigonometry
##onov
eisenstein
ads
dic
ti
accom
exclusion
diagonals
##iness
bg
eps
kut
libr
satisﬁ
transmitters
internalize
competition
road
2i
transpar
glass
skele
spend
neur
calib
transmissions
##abelian
refine
expensive
ensures
recovers
schroed
##ef
stone
##bing
103
prin
2c
tess
##90
##𝐚𝐧
considerable
voltage
park
motives
closest
neighbourhood
wider
relays
shares
eh
##gan
thresholds
shimura
rhombus
prepare
##orth
suboptim
##otropy
##itch
putting
fitting
##strass
relaying
zn
representable
##holtz
piv
##ault
batch
√𝟐
##fact
web
simplifying
envelope
##elt
reals
reaches
reflecting
sized
polygonal
pmod
portfol
weierstrass
pg
kaz
outliers
plug
rotational
##celes
##roll
conducted
gcd
algebroid
cache
parentheses
fy
ia
nls
tn
obey
optimally
months
increment
strips
isosceles
juice
ok
##chi
addend
discovery
coales
##ecker
periodicity
unknowns
filtered
rainbow
enlarg
compressive
swim
aﬃne
√2
anderson
##ynchron
173
##lie
exotic
optional
ls
##len
cahn
fits
iot
upward
orbifolds
##enbeck
applet
splits
discussing
meeting
uncountable
pentag
accompl
##xy
##acles
recti
phone
hamming
meaningful
critique
##terra
nn
positively
histor
systematically
z1
##ighter
helmholtz
bob
##cati
##abe
subordin
overlap
subcategory
fokker
dehn
volterra
steep
extract
cumulative
cw
##plays
aggregation
hereditary
fuch
β1
oscillation
rounded
automata
inclusions
eigenvector
peters
alternatives
incorporate
##att
dof
##xi
encl
discretizations
isn
disconn
attraction
equidis
cobordism
universe
##68
lr
𝟒𝟒𝟒
modifications
notably
simulate
legendrian
arrows
hyperc
diffusions
gallon
disease
fed
tt
##ina
considerably
answered
##enz
compass
trip
##ino
uhlenbeck
λ1
death
relevance
5g
rod
forest
stock
foundations
recording
##bm
wait
chose
quivers
ﬁxed
##ulsive
orn
##forms
save
orange
screen
prelim
belief
khovanov
##rup
##−5
producing
##licz
differentiability
repeating
burgers
amal
attractors
wood
##menting
iterates
routing
docum
aid
orlicz
stands
movement
cuspidal
displays
##ellig
attained
aus
entropies
schroedinger
saturated
##aten
worth
casc
expectations
fermions
kum
reac
intellig
fifths
##berger
##ekind
##ichotomy
birkhoff
preliminary
##enty
bear
ambigu
dedekind
towers
interfaces
cancel
cun
##arting
##elled
illustration
overlapping
trial
centralized
h1
ses
chocol
##abatic
adequ
detector
machines
bil
##lig
##iro
expo
124
controllers
𝝅𝝅
##rained
operads
choos
contrary
rid
concentrate
liters
##ued
𝟒𝟓
𝟔𝟎
preced
traveled
loci
132
cutting
majority
boson
stratified
##𝑹𝑹
conductivity
comprehension
spanned
vs
normally
organize
h2
lm
party
opens
macd
3y
crystals
enhance
−8
##phere
##timately
keeping
bub
ki
liv
##𝐕𝐕
differs
nak
−0
##67
latent
odes
ooo
bog
##illen
calder
elabor
##etical
##𝑖𝑖
fibered
##fold
##35
##encing
forec
girth
dyl
reed
##𝒙𝒙𝟐𝟐
strengthen
contractions
tuning
𝟕𝟓
161
appearance
coeﬃcients
##→∞
##anged
writes
burn
vm
pose
##using
oi
arn
115
dun
psl
##positive
bud
mel
##oring
##onalds
doubles
kutta
macdonald
nothing
greatly
2780
levy
protractor
2𝑥𝑥
hn
incident
ny
focused
##𝑃𝑃
maximally
exploited
investigating
2781
𝐟𝐟𝐟
assisted
splines
redundancy
𝐟𝐟𝐟𝐟
##gu
encomp
recon
deno
kim
suited
persistent
thorough
donalds
circuits
aware
bed
##osh
2003
semicirc
tomography
pret
dictionary
donaldson
##𝟎𝟎𝟎
recipe
rescaled
retrieval
𝟐𝟏
encode
instanton
colouring
kronecker
il
##omon
presentations
ellipso
hydrodynamic
aided
gather
##lander
##ections
payoff
kinematic
dataset
𝟏𝟕
quillen
##𝟏𝟏𝟑𝟑
advances
peer
##symmetric
spinner
uncertainties
sdp
##enced
exec
invent
belt
##lusive
inﬁnite
##ationally
poor
eigens
##board
electro
framed
pour
ﬁg
linearity
𝒉𝒉
forming
reformulation
mind
coset
ensuring
fermion
##zen
subproblem
cream
converting
harvesting
bps
asynchron
adds
2001
adopted
rock
dynkin
characterise
involutions
les
tile
##izability
𝟏𝟏𝟗𝟗
supersymmetry
catalan
www
hypercub
−7
conical
mapped
newly
adiabatic
ni
dynamically
dispro
operational
draws
kato
##radi
##onsist
forth
##agin
dihedral
decades
fulfill
tackle
nic
##cript
forb
whit
bars
americ
bullet
inherent
##weg
##van
##istant
infected
presenting
straighted
encompass
d1
ef
illustrates
exploring
avoids
annul
acoustic
poll
biased
veloci
t0
##ils
sea
discusses
emerging
men
stating
toy
purposes
pseudod
discontinuity
journal
branes
delayed
tm
hitting
correspondences
cuntz
deliver
proportions
investment
##45
thousandths
mds
##cement
amalgam
velocities
born
individ
collections
music
fric
nick
##𝑚𝑚
strata
𝟏𝟏𝟕𝟕
stars
##cient
tailed
fermat
x−
##flow
lost
decomposable
compactifications
tern
steiner
opin
library
3x2
##eper
canonically
candy
imperfect
inac
corollaries
warp
##nikov
researchers
nag
##ii
diamond
hide
##vised
##elle
bmo
threefold
johnson
##adily
exposition
##77
##tibility
lastly
empirically
resonant
s1
128
polynomially
connects
retain
dividend
bacteria
2e
riccati
kk
##areness
contents
initiated
hot
degeneration
latin
unconditional
suboptimal
𝐷𝐷
obtains
##bb
speeds
concentrated
experimentally
animals
##kai
monomials
individually
datab
smoothly
exhibiting
ib
came
dice
yu
algebroids
hart
##inski
dash
lists
passive
##ae
##rot
##acts
modelled
sole
differently
stiff
##etermin
lifts
ramified
basketball
2g
bour
send
##grid
interfer
lind
brain
awareness
alternatively
jet
flip
collective
instructional
ornstein
mathematicians
##zer
##leman
##ason
##sitional
assumes
anomalous
##ami
implementations
𝐜𝐜𝐜𝐜𝐬𝐬
##eff
##itory
λi
quen
smart
conjectural
significance
−𝟓𝟓
refers
skeleton
##net
##mos
beau
##arial
seif
##elling
prototyp
𝒘𝒘
minors
commute
noted
##etermined
##asting
affected
priors
ternary
##nel
##yah
andre
enfor
tangential
favorite
##𝑮𝑮
trend
anyone
horizont
gri
pizza
##ament
nik
utilized
mot
##asion
seek
90°
obstacles
returns
##jes
grading
##ounted
goals
capability
visible
fragment
##eas
teachers
oce
explaining
reached
semantics
mx
rom
female
##36
extin
##ramified
hyperbolicity
attacks
##hdan
horizontally
3a
dw
dag
suffic
divisibility
kazhdan
𝜋𝜋
aligned
facing
encoder
1x
ati
kirch
clean
mention
parallelograms
han
sinh
satell
disagree
seifert
ff
unramified
pref
locality
totals
unfortun
q1
exhaus
regul
freely
watch
impose
##ellations
illustrative
rtimes
sublinear
enyi
toroidal
##user
multipar
2002
yj
eleg
innov
√𝟑
indicator
orbital
tourn
portfolio
bous
document
went
##idable
manin
scalars
aj
mall
moore
mobility
##conn
twistor
fidel
unexp
displayed
e3
grand
advection
visualize
kalman
disconnected
kost
##aud
##rami
subsh
##hedra
td
##plings
nonun
unexpected
𝟐𝟕
occurrence
controlling
assigns
atiyah
fro
hen
##olar
monoch
investigations
snow
stratification
##itary
chip
##uss
circled
servers
simplices
polymer
2j
c3
undergo
anything
constitute
hitchin
soon
interestingly
hir
##iewicz
status
fermi
electrical
codewords
−𝟓
##𝐫𝐫
##sts
multiuser
concord
schwartz
carl
integrand
molecules
earned
pullback
k1
ash
##slash
mich
##akian
subtle
satisﬁes
sdes
##cu
imposing
eliminate
beltrami
dram
hon
𝑝𝑝
##38
deciding
bifurcations
enriched
w1
##level
##ructure
##𝐜𝐜𝐜𝐜
replacement
tx
tj
taut
asynchronous
##char
brane
spins
bon
sequentially
135
240
penalized
ere
f0
##skii
irre
contradiction
survival
ht
##free
pointing
incorporating
d2d
straightedge
monochromatic
larg
2019
balancing
unfortunately
vice
degra
membr
𝟑𝟑𝒙𝒙
##𝑥𝑥2
bellman
modal
biology
clockwise
dichotomy
##70
ups
fluctuation
sgd
magic
##ny
##va
##bc
inerti
increasingly
##𝐀𝐀𝐀𝐀
anomaly
cram
stays
unable
dedic
##rime
lectures
##case
##aa
##𝟏𝟏𝟎𝟎
pseudodifferential
eu
novi
defects
bills
selberg
3t
altitude
backslash
diverges
assemb
cg
gol
capacities
subvarieties
wild
usage
texts
zy
numeric
neglig
ramification
commutativity
title
w2
##zzo
camer
2z
matlab
122
113
oh
sde
𝟑𝟓
##fier
127
adopt
codeword
fidelity
##anks
tos
##standard
convolutional
##imir
##jects
##ego
imagine
metrizable
1990
anc
interconn
trials
1999
residuals
paradox
roles
qubit
##angled
importantly
rolling
outlined
121
shrinking
alle
mixtures
##yson
rl
##aly
prol
everyone
encountered
puzzle
chocolate
dol
##zes
polish
centre
affects
rewriting
opposed
dam
resolved
eigenfunction
exceeds
quandles
zag
##iform
smith
proposal
rounds
implication
𝟒𝟒𝟒𝟒
kri
rk
wins
phyl
terminology
σ2
brings
novelty
remarkably
##llllllll
epidemic
restricting
turned
irs
elegant
vy
plat
logics
organized
century
##onstrained
versa
progressions
adversarial
male
sale
##any
validated
whitney
##yer
fixing
n−1
##ito
graphic
perman
crack
style
##fe
provably
martingales
inertia
iqr
rog
detecting
auto
experi
translates
brand
machin
lceil
##66
verification
sinr
duals
confirms
twenty
maximizes
sends
attend
joining
facilitate
rceil
ub
##x3
##lation
##uto
income
infr
kod
nl
ped
𝑶𝑶
##𝑬𝑬
parking
charts
copul
pq
##city
gray
coex
242
couplings
quarters
customer
##idiagonal
𝑫𝑫
tele
knows
stabilizer
hook
##alley
novikov
pb
##rences
ot
hem
tension
𝒑𝒑
##𝐨𝐨
##ploys
chr
teaching
bk
xnd
ﬁt
reward
cosines
announ
iteratively
selective
##ques
club
114
frameworks
assertion
surround
fruit
swe
tube
lac
unconstrained
thompson
prepares
2u
wavelets
validation
revealed
forced
inconsist
eigenst
210
leaving
mg
##𝐝𝐝
solomon
leader
statistically
damped
##li
macro
thresholding
solitary
vortices
1−
##80
creates
frank
largely
webs
stages
unp
monic
##95
isogen
##elman
calculators
illustrating
circulant
##field
##aev
215
io
##anon
sei
plastic
144
##exact
contractible
subvariety
song
𝑤𝑤
format
##ops
##print
forests
grassmannians
machinery
nd
drive
enumerate
2l
employs
health
111
technologies
corrected
cardinals
qr
##ogether
renormalized
4y
pip
##ester
lex
north
##gent
##otes
united
pictor
recursively
rh
convection
multilevel
indust
instrum
commutators
4d
cutoff
preconditioner
##words
##fici
oscillating
amplify
negligible
##vals
altogether
newtonian
##tization
decor
spinors
divergent
camp
##𝑂𝑂
nonstandard
valuations
coordination
orientations
legi
queueing
pursuit
wel
twisting
brace
casimir
immersion
bruhat
##pe
conditioning
𝟑𝟑𝟒𝟒
stielt
stieltjes
hd
k2
mv
nond
skewed
##more
compares
lange
##inter
turning
incorrectly
watson
bialgebra
hh
nan
millilit
ferris
milliliters
rice
##sation
depos
phil
languages
reconstructed
treatments
##ealing
##−𝟓𝟓
decided
##akov
lateral
ig
truc
##vo
##oli
##72
animal
print
dyadic
relaxations
commutation
richards
auslander
hed
lunch
tion
tits
turing
zeroes
ordinal
distinguishing
reﬂ
counters
bak
drag
##vell
##eline
phras
economic
seiberg
equip
segal
plotted
causes
historical
dedicated
##itting
##ovich
genu
vic
walls
kry
##fil
shot
unic
grades
gon
##d1
194
118
gcf
pont
181
sectors
##ipping
##chain
viol
legitimate
spiral
eqn
pseudoconvex
##han
stem
depart
concaten
improper
halfway
1998
##path
##ese
moved
ages
waiting
bimodule
rubric
vn
colle
hear
preservation
stir
informally
𝑨𝑩𝑪
forbidden
𝟏𝟗
##umb
##iff
randomization
𝟓𝟓𝟓𝟓
ranging
asc
preferred
reinforcement
withd
diverse
scalable
marc
performances
predictor
mmse
readily
contractive
chordal
preceding
rt
##olved
##ensen
datum
wanted
exem
1a
##r2
pareto
indi
baseball
dark
hbar
discount
millimeter
discontinuities
##aira
𝟎𝟎𝟎𝟎
rdquo
immersions
carrier
contextual
𝐴𝐵𝐶
renewal
krylov
𝑽𝑽
##emic
strain
rolls
plasma
gab
hr
mur
λ2
moon
lagrangians
accordingly
sciences
##pherical
germs
stably
fives
𝒅𝒅
##ml
##𝐡𝐡
##𝐩𝐩
capabilities
isotopy
confirmed
aud
gn
creation
harmon
references
enabling
korte
bh
hj
ler
##ults
bimodules
hoc
lq
cool
obius
cosh
rationals
embeds
ldquo
legs
pulse
parent
##enger
blind
negatively
##65
##eries
inexact
iso
shr
calog
addends
collecting
excess
##cepted
diffeomorphic
spreads
##eno
##ori
artinian
ken
##fl
##y1
##ison
meant
regularly
consistently
absorbing
living
4𝑥
pfaff
##xj
##rodynamics
american
korteweg
calogero
bary
profinite
representatives
conditionally
annual
implicitly
integrators
deployment
harn
𝟗𝟗𝟗
cham
entangled
hierarchies
2783
rescaling
indirect
𝑑𝑑
##ertial
plans
someone
usefulness
landsc
stirling
withdraw
predicts
spherically
incorporates
escape
solely
dens
##gain
##jections
restrictive
springer
apparent
kodaira
##94
##oher
termed
¯x
approximates
bottlen
nt
nth
##amin
##irs
rao
pezzo
fun
pca
rele
viewing
wiret
sixths
targets
services
langevin
fs
mt
covariates
rg
weiss
dest
integro
launch
instructions
extrap
tomato
wiretap
resistance
##bers
summands
reversal
mk
ride
##fly
credit
simplifies
shallow
yamabe
kau
nonex
##normal
click
meets
soph
downward
lifted
pivot
hspace
##rase
##berts
reviewed
hasse
corrup
selfadjoint
liu
intertwining
turbulence
extinction
ath
cft
maxima
carrying
dogs
##anonical
bt
pv
##insky
naive
subcategories
fren
##spec
advance
e∗
𝐦𝐦
encodes
business
safety
fuchsian
mari
sod
##eee
saturation
harnack
everything
𝟑𝟑𝟔𝟔
closures
conjunction
route
reciprocity
##ampling
stored
seventh
##gmund
jan
constructs
enumerative
amenability
injectivity
ieee
##vert
tempered
##iscid
brough
##imer
inviscid
multigrid
𝟑𝟑𝟓𝟓
sugar
axiomatic
eigensp
rosen
##elon
##tings
admin
warped
oct
reset
##ayashi
106
##ountain
sin2
##onomic
payment
reflects
cities
##a2
para
##commod
𝟒𝟒𝟑𝟑
dyson
mentally
clim
approaching
submodule
##aut
##enue
multif
harder
collinear
biharmonic
billiard
brought
##entiable
accommod
##potents
arranged
dramatic
##matic
inertial
abel
equidistant
adequate
##urs
slic
quantile
residues
subsystems
shuffle
expository
√3
##my
##group
semim
budget
pec
quantitatively
𝐭𝐚𝐧
semir
recognition
##holomorphic
preparation
absorption
phylogene
𝟐𝟖
obl
manifest
marbles
pink
singer
𝟒𝒙
##array
confined
##chem
##𝟏𝟏𝟒𝟒
enabled
b0
cx
hi
coalgebra
reproduce
deck
longrightarrow
##ikov
slower
##kaya
quin
losses
satellite
manus
held
##atum
letting
signaling
penrose
csit
lov
mse
generalises
parameterization
kilom
900
nm
por
accomp
observing
geqslant
tracing
suscep
##𝐢𝐭
##ima
verbal
scott
radar
walker
automaton
eighths
700
host
supergra
ballo
christ
fm
contribute
thermodynamics
tfrac
##ficiency
pear
##arm
##oreg
foundational
utilizes
180°
tutte
##𝐏𝐏𝐏𝐏
duration
friction
exhaustive
##ense
manage
autoc
labelled
rationally
andrew
mini
graders
loan
1996
resolving
architectures
zygmund
ahead
##xx
whitt
suffer
##ffman
##iest
accounts
colorable
folded
visco
maintaining
isospectral
##reath
exponentials
richardson
##static
composing
##vily
cosets
indicating
travels
𝐯𝐯
##rial
braids
##ontinuous
cv
ρ2
−x
enta
mono
revolution
fly
p3
##−0
##deriv
##osites
zo
##plan
##ishing
𝟒𝟒𝟐𝟐
ix
alice
cov
tq
confin
attribute
𝒊𝒊
##urally
##ida
elev
patch
sliding
assigning
ruled
iy
##𝑡𝑡
##78
neighboring
466
struggling
fc
##21
conve
modulated
checked
vee
divergences
bid
##fﬁ
practically
collapse
kummer
##fts
##ael
##bits
orally
scope
filtrations
genetic
contradic
##feld
##hu
##zin
folding
promin
unifying
backha
##books
falls
annulus
##tier
##ream
march
weighs
striking
emergence
ah
hk
##cer
parabolas
collocation
nucle
strich
slide
files
heavily
##uation
##𝐸𝐸
##amoto
semil
crosses
prote
shel
concavity
subtracted
quenched
coprime
het
##96
forget
examining
didn
packings
enjoys
kob
##dt
##lea
##asawa
##umin
observability
hundredth
strichartz
query
polylog
candidates
finance
intract
asset
reaching
rulers
dan
##iser
attracted
manuscript
tag
fluxes
equidistribution
2f
220
wreath
##auer
primarily
##turing
1997
possessing
multicast
##ulti
109
perron
codomain
involutive
irreducibility
interpolating
brun
benj
placing
##nos
unus
competing
##iable
willi
infection
concur
receives
attains
hypercube
##−𝟏
##ocking
analysed
bosons
david
pend
tar
##icks
##aged
rationality
semicircle
##mas
##hart
laplacians
ﬁgure
aperiodic
nar
tc
conﬁ
##ameters
plants
periodically
𝟎𝟎𝟎𝟎𝟎𝟎
nr
px
##√𝟑𝟑
seminal
roberts
penny
collisions
¯¯¯
vries
forall
subjects
graphed
##nys
superm
paley
serving
directrix
broader
𝟗𝟎
lamin
nef
radicals
purchase
pentagon
gs
tip
y3
conges
##imeters
idempotents
anch
plix
calls
pathwise
coloured
blood
bottle
membership
spacelike
supergravity
sorting
contra
angled
demands
##ni
##c1
##aka
flight
homoclinic
implied
dub
kant
night
𝟐𝟑
##rema
semif
throw
river
settle
bourgain
maz
obner
haw
optics
travell
quasis
1995
##44
chev
specialized
neighborhoods
enhanc
sasakian
exempl
wk
##cur
##ableness
borrow
beneath
kx
puts
##fort
##v1
1980
##fiability
updated
##pers
smale
reasonableness
quarts
baum
reformulated
iwasawa
ue
adams
demonstration
merely
trick
king
##ared
nonabelian
markets
tao
voron
fuel
##integrable
nonexistence
jer
##26
backhaul
kam
##like
surrog
prem
remarks
entropic
recognizing
##tuse
proximity
##vents
contras
116
zfc
krein
late
buildings
reformulate
alexand
movie
gy
yard
##𝒎𝒎
remin
reviewing
strand
revisited
cheeger
n1
𝑅𝑅
continuing
##gered
subdomain
bath
ending
dilate
8x
wu
##efined
sines
arnold
4a
effic
qos
xu
##che
degenerations
spaced
nk
door
partly
separability
radially
bialgebras
suspension
philoso
corrupted
keller
mb
wholes
145
marker
##iﬁed
acceptable
sud
##itation
##changed
fastest
excited
rewritten
ubiqu
insur
leqslant
intelligent
membrane
##ﬁc
chand
interl
ramp
##ˇˇˇ
din
cos2
flowers
emerge
ultrafil
##nis
##27
whis
reken
instantons
rekenre
vj
wra
𝑄𝑄
##pertur
stationarity
umb
##while
lder
grouping
trivially
leverage
barycent
ner
−𝟔
##𝑋𝑋
##ikh
conductor
svd
photon
crayon
sier
##graph
𝟐𝟐𝟕𝟕
−10
2×
hp
coerc
##𝟐𝟐𝟐
spectrally
blanks
dependency
airy
yd
##97
##ony
impulse
treating
bian
gabor
𝑺𝑺
topos
syzy
##iavin
connectedness
observational
centralizer
350
whittaker
kas
sar
wire
##pi
reads
##abel
asymptote
suppl
turaev
eﬀ
pit
reeb
plates
flash
verifying
bridges
heuristics
malliavin
baker
eat
transpose
skein
keeps
mrs
concordance
phylogenetic
xr
##ingly
obtuse
117
constitutes
𝑚∠
##me
transforming
looked
fairness
baire
gd
##acher
comments
##𝐜𝐜𝐜
𝐜𝐜𝐜𝐜𝐜𝐜
submodules
pascal
superconformal
feller
interact
intensive
detected
trapped
specialization
implementing
devise
stretch
travelling
i2
minimized
1992
pontry
east
tum
##𝒛𝒛
##ucker
overd
quantification
viable
efficacy
alb
regener
initiate
deletion
philosoph
##complex
electronic
3𝑥𝑥
xo
graphically
seeing
download
coincidence
𝐴𝐴𝐵𝐵
disturbances
computers
##going
sleep
chooses
𝟒𝟐
##ires
une
autoreg
𝟐𝟐𝟎𝟎
quasicon
tally
analyticity
225
evolve
renewable
ae
bike
gil
i∈
kaw
6wb4
kirchhoff
qc
uc
𝟔𝟔𝟔
##fiers
##riers
dimer
optimisation
𝟒𝟒𝟓𝟓
exhibited
opinion
database
tk
spon
finished
resultant
conversing
mont
momenta
fronts
pontryagin
##length
prevent
excur
𝟐𝟐𝟐𝟐𝟐𝟐
𝑚𝑚∠
fg
scored
uncondition
𝟒𝟒𝟏𝟏
holding
2784
emerges
dna
##vs
##imum
mukai
leveraging
activation
wit
##y00
twos
##angular
sinus
rename
##functions
threes
fee
supposed
pauli
removal
mhd
tors
cocompact
tridiagonal
fibres
evolves
v0
empt
layered
semimarting
isol
metast
remote
potts
nearby
queues
expresses
antip
##function
doubled
##𝐐𝐐𝐐𝐐
intractable
isotropy
knew
decides
feel
184
caputo
##holonomic
jud
kel
##oni
##yset
converted
flour
revenue
permit
specification
##cyclic
operate
favorable
nav
##ald
##rick
subschem
kobayashi
##wich
##𝐫𝐞
##chner
multist
carp
succeed
straws
emptyset
pgl
##nes
##isition
##umber
##udin
##teen
reducibility
conforming
remainders
eye
lg
sight
##04
##−−
repulsive
slip
conflic
mcmc
subfact
transparent
##tis
##itous
exception
##anger
visit
mpc
dougl
stepping
##𝐖𝐖𝐖𝐖
##ht
comfort
constructible
calories
geq2
predictors
discussions
szeg
unimodal
dropped
fk
discs
##𝟑𝟑𝟑𝟑
affin
complemented
intuitionistic
eigenstates
sb
translating
aggregate
beauti
resta
interlea
records
semin
loew
##iley
attracting
residually
strategically
acad
signatures
facets
1994
redundant
subproblems
rekenrek
dyc
##associ
breaks
isotopic
ambiguity
voronoi
restaur
𝟓𝒙
diego
degrad
134
galton
explores
##manifolds
adversary
##kel
##uate
noises
unifies
nowhere
reasonably
holomorph
availability
diﬀerence
kerr
birthday
##bi
##berries
echet
bottleneck
planet
##ieri
pictured
450
##etti
cochain
quaternions
cusps
acquisition
ng
##𝑿𝑿
indetermin
136
axiomati
repeatedly
offered
##alytic
312
##olis
asymptotes
119
containers
physic
230
2785
revealing
##itaev
huge
##𝑨𝑨𝑨𝑨𝑨𝑨
pictorial
##jn
alter
ito
inﬁnitely
insurance
va
differentiate
osp
pul
transce
robinson
kirill
douglas
𝑹𝑹
##isp
##ett
likewise
sky
failures
dunkl
phrases
dk
sut
homotopic
shirts
chevalley
𝐭𝐭𝐭
##appear
##igration
repb
sandwich
##𝒓𝒓
coars
decon
decade
gained
lucas
spontaneous
dress
##ows
##standing
holm
convolutions
lorenz
##ompact
kirillov
5𝑥
jada
##ilin
implying
behaved
nominal
hub
##37
resil
disp
##velength
motivate
live
sic
loads
universally
229
46628
ˇˇˇˇˇ
##√2
deeper
sylow
reality
calculates
galile
adjusted
unusual
rol
adapting
magne
dyldx
##cy
##ctive
realizing
scalability
bochner
slant
captured
256
claimed
accumulation
dyck
verm
vast
cof
##ogonal
001
courant
1970
ks
nut
𝟕𝟐
##attice
wherein
supervised
decoders
sieve
slot
evenly
subgradi
##variant
incorporated
shrink
i1
commens
imped
replica
hilliard
neurons
incremental
spik
212
isometrically
boun
ji
katz
##unk
##idirec
coeﬃcient
unconditionally
rb
west
##lines
stratum
served
##ullback
aimed
milk
kept
switched
terminals
zagier
##yments
convention
soccer
noiseless
prominent
3r
gt
depic
−12
magneto
nilpot
interm
simeq
𝟏𝟏𝒙𝒙
lake
morrey
yester
teams
safe
college
sister
supers
controllable
ultimately
crystalline
yesterday
3b
buch
hbox
lose
tb
##self
unn
unions
unchanged
chords
pad
plau
##kawa
butter
flips
circumst
##𝐚𝐚𝐚𝐚
tolerance
lexic
polylogarithm
oil
tap
##bach
comod
abund
boost
213
rota
predicting
jacobians
landscape
mism
mell
##200
restor
extracted
transmitting
awgn
steepest
bouss
##auder
nir
pod
variances
142
selects
holonomic
females
sophistic
##entric
paris
queries
geq0
combinatorially
strengthening
reversed
constitu
octon
condensation
manipulatives
twin
buffer
motivates
schwinger
eqnarray
quintic
mond
peter
##leson
cu
atmos
genera
interch
##posed
understandings
rx
sir
##oor
ubiquitous
rab
##ivity
unrel
carleman
electricity
kohn
ocean
310
kullback
##imorph
propositional
homogeneity
infimum
𝐢𝐧𝟐
cav
𝐮𝐧
suff
discounted
bijections
restate
submodular
##hib
tetrahedron
beautiful
𝐸𝐸
129
inducing
tightness
accomplished
−𝟔𝟔
##loc
charging
minimality
keywords
adaptively
fractals
wolf
i∈i
##oes
submer
delic
sixes
oooo
daily
kan
##oik
137
capital
recommend
##inesq
echelon
denoising
𝐮𝐧𝐢𝐭
bj
ost
##ref
bean
longit
uniformity
avoidance
siam
eggs
nonuniform
##ingular
mand
preference
hypo
certainly
270
salt
iid
ut
contracting
concise
histograms
passed
reconstructing
cascade
dashed
hs
𝑆𝑆
timelike
##heet
occupation
quadrics
hemis
boussinesq
##uated
solar
286
##ogenous
reservo
surrogate
##43
manu
##ounting
trading
𝟓𝟓𝟏𝟏
𝟏𝟏𝟏𝟏𝟐𝟐
bicategor
schwarzschild
crayons
congestion
nirenberg
mort
x5
##fo
##08
##iling
carleson
happened
tournament
tomatoes
pus
##lay
##ryp
##𝜃𝜃
probab
harris
displaying
conducting
economics
genuine
7x
##ette
perverse
glue
trapezoids
mlr8
zz
192
remained
𝑨𝑨𝑩𝑩
##𝐷𝐷𝐷𝐷
precoder
zone
apple
gev
spacing
−a
##rs
##uo
##×10
##acies
sha
adults
subring
classically
occasion
jumping
colours
hexagonal
410
##cup
corrob
preprint
practic
summand
surveyed
mutations
refinements
##khin
feder
autoregressive
corrobor
b3
g0
pig
##ptive
disappear
coadjoint
willmore
uncover
shadowing
bonn
##hren
##aking
exclusive
prompt
exchangeable
##orrelation
ridge
andrews
hler
toss
foliated
benchmarks
hexagons
james
electrons
##uper
##𝒄𝒄
cliques
simon
perspec
scaffold
culmin
𝟔𝟒
𝟖𝟎
repl
sex
quantified
geq1
articles
confirming
aoi
hits
##hop
injection
nonholonomic
superlinear
heavier
prefix
cz
qt
##bling
a−1
##oting
183
superintegrable
ﬁnding
mcc
##gar
spans
repro
𝟐𝟐𝟔𝟔
iterate
##1015
##𝐴𝐴𝐴𝐴𝐴𝐴
4t
coalgebras
noah
serious
147
##ields
cens
##48
##bu
##aments
tradition
superst
harmonics
kauffman
degradation
verma
bun
jenn
neu
associates
trained
pix
hurst
purchased
hf
sending
##sivity
mats
appealing
ranking
maker
kepler
stabilizing
2nd
conference
limitation
conflu
medical
integrator
tann
spot
##phys
simplification
disturbance
hc
𝑖𝑖
clay
complexities
minimally
abstractly
synchronous
monopole
ez
rip
𝟐𝟔
1991
disordered
calibration
##omic
##ifts
nonhomogeneous
naming
renam
antideriv
summarized
##rogen
surrounding
maple
maass
allen
165
decomposes
defective
elena
responsible
marginals
sticky
panel
leakage
ry
##ux
##eda
sequel
meanwhile
280
preconditioned
jensen
→∞
##kes
##ulating
clt
157
medic
lis
##05
##empor
orm
dead
upcoming
severe
ces
boy
summable
decoupling
𝐮𝐧𝐢𝐭𝐬
buys
amongst
mori
qualitatively
kantorov
3k
roch
##zn
thereof
fault
guaranteeing
ﬁnitely
fab
##09
##ona
187
216
arithmetical
updating
golden
leibler
sophisticated
##iors
spike
symple
semidi
##heit
miller
wavelength
occupied
perspectives
aqu
sull
photo
conversions
button
symmetrical
comparative
worse
violation
picked
shrinkage
tessellation
ja
sis
soci
œa
˜xi
√5
##addi
##uchi
2786
##process
##𝐫𝐞𝐚
elic
mord
addressing
pyramids
europ
mazur
manufact
sulliv
4k
dra
jj
##𝐯𝐯
twofold
##otherm
1993
concludes
quasiconformal
q2
##ipl
##stone
univalent
##antom
##equal
achievability
sheets
##ldx
substitutions
renyi
environmental
nickels
prolong
intermitt
eb
##eister
capturing
suggestions
surveys
selmer
annihilation
disprove
loewner
vision
commutes
liz
##unctions
relational
138
efforts
diffraction
beneficial
elaborate
kad
pir
rac
veg
##√𝟐𝟐
assist
monop
133
ordin
pfaffian
chandra
𝟔𝟔𝟔𝟔
len
𝟐𝟎𝟎
##𝐠𝐠
intrig
desingular
143
prompts
jamming
fj
diagrammatic
illumin
encompasses
inaccur
circumstances
mle
trou
xp
##acon
reit
reidem
carnot
july
assembly
males
##max
barg
selling
extrapolation
reidemeister
ehr
##07
##itable
##asch
syst
valuable
farther
𝟕𝟕𝟓𝟓
obviously
participants
cass
dop
kra
𝟒𝟖
##fall
weinstein
microlocal
superconduc
##associative
1c
ˇˇˇˇ
##−6
##−𝟏𝟏𝟏𝟏
regulation
flavor
𝟓𝟓𝟐𝟐
causality
delicate
kantorovich
semidirect
fra
fence
discipl
176
pseudos
millions
propagator
justified
fitness
fukaya
tracial
hyperbola
mitigate
bou
z3
ant
reyn
inequivalent
opposites
##loading
−𝟏𝟏𝟐𝟐
cra
ecc
sato
proc
rei
generalisations
derives
decl
realizable
weighting
berry
3c
lands
zam
##eman
##ieu
additivity
monad
inflation
request
deﬁnitions
devised
beams
printed
tautological
2q
vc
##sten
simulating
dependencies
guided
##ractal
monoton
𝟔𝟔𝟏𝟏
guessing
𝐜𝐦𝟐
ned
wt
##nov
##𝒙𝟐
baseline
##acks
speciﬁc
invertibility
subclasses
elsewhere
turbulent
𝟓𝟐
ine
characterised
154
freeness
splittings
blackline
##rinsically
wishart
south
baby
sid
##ban
schauder
walking
sells
superiority
csc
pile
tier
##pn
##ucid
undec
patches
##ycle
torelli
descriptive
mit
zak
extrinsic
##amped
##expon
cumulants
git
𝐮𝐮𝐮𝐮𝐮
constellation
pertain
extrema
coefﬁ
##𝟎𝟎°
elucid
streams
dividends
viscoelastic
tin
clo
percents
suggesting
accelerate
lifetime
enhancement
025
gw
mountain
ye
𝑙𝑙
pays
trapping
occurred
fahren
facilitates
##hyd
fahrenheit
2h
##uki
conway
satisfact
stabilized
urn
witness
1b
arms
paired
certific
quasisymmetric
mellin
##𝐓𝐓
trends
frac13
cubical
widths
euclid
subcar
quartile
schedule
windows
deposit
intriguing
##93
##oke
##iman
##roducts
156
communities
distinction
##potential
##ialgebra
##92
unm
##apsed
herein
tangle
cancer
god
national
pants
##power
##tious
shi
unav
qubits
smallness
maybe
tunnel
seemingly
excluded
mitt
##yal
exceptions
brst
brother
##valent
overlaps
ellipsoid
decorated
jar
franc
185
singleton
unknot
spinning
cake
𝐜𝐜𝐬𝐬𝐬𝐬
swimming
leray
slicing
pendulum
gevrey
rotates
stretching
monitoring
rogers
whereby
squarefree
enlarged
fav
vib
β2
##reasing
trust
152
assignments
backgrounds
uavs
kilometers
1s
𝟓𝟎𝟎
##ighting
##ruch
intrinsically
transitivity
emerged
mistakes
deployed
sullivan
ion
pie
wick
𝑨𝑪
##quist
handling
tangles
strengths
modifying
michael
𝟗𝟗𝟗𝟗
aerial
qp
rout
∆t
√𝟑𝟑
𝐟𝐟
desk
infeas
integrality
erdos
sweep
##tory
##ols
##oscopic
decoded
tilted
repetition
duplic
zhu
intuitively
rearrangement
suffices
zoom
mordell
##ﬃce
##size
fire
completions
descend
unitarily
quadrang
168
substituted
finer
155
supersingular
modularity
taller
apparently
148
##ropic
𝟐𝟐𝟖𝟖
cmc
film
ferromagnetic
preconditioners
stretched
patient
reynolds
nition
##𝑝𝑝
##tian
##atten
rees
##ocusing
##spring
interlac
lap
##𝑱𝑱
cher
syl
orderings
quadru
preshe
chemot
shoe
cryptography
excitation
resembles
alexandrov
##abeled
routes
bending
june
tiss
##roy
mahler
188
287
propagating
𝟕𝟕𝟐𝟐
falling
decoupled
010
3i
gel
##𝐺𝐺
##plane
scar
caff
lemon
stops
inconsistent
##iards
##gi
##elson
shocks
decidable
partite
361
billiards
participate
ted
𝒂𝟐
##zeb
##𝑄𝑄
##eser
##iger
unob
provable
bry
mother
rus
##anas
##outs
##osystem
log2
bigr
shoes
jackson
##𝜽𝜽
##ica
beilin
unres
generalising
smoothed
segre
bigl
giant
permanent
beilinson
cel
hm
vand
##ias
##will
##volution
ate
conjugates
joined
1989
sasaki
bianchi
sos
##06
spur
accepted
sco
kpz
pecul
spends
reshe
mai
##positions
default
cm3
320
dend
−9
asz
bohr
squaring
summing
assessed
𝟔𝟔𝟐𝟐
picking
earns
tyler
lub
𝟐𝝅
##𝑸𝑸
ancient
182
specially
holder
projector
yangian
kostant
songs
jose
lane
xa
##pin
##46
##vere
##aded
##ructured
chapters
berger
traditionally
qn
𝐀𝐫𝐞𝐚
##asiewicz
fours
saito
percentages
morning
pluris
restaurant
hun
nπ
oly
numbered
multim
ulam
candies
highlights
evolutions
copula
lives
m8
##rn
told
classm
classifications
confid
triviality
househ
drops
accomplish
##idirectional
reiten
gho
ud
##iation
##worth
##orient
coordinated
toolk
whitehead
1988
football
hirzeb
plausible
bip
##eys
##trac
alon
drawback
##ubharmonic
volun
satisfaction
##tahed
deﬁnite
diagonalizable
settles
navig
compounded
##arium
##ymplectic
stochastically
quantifying
fragmentation
subgradient
cj
##√𝟐
isotherm
##ume
diameters
identifiability
theme
158
centroid
harish
𝑥𝑥−
treats
multivariable
reproduction
rectifiable
griff
rope
wright
##ga
##uled
##undle
##indrom
encryp
codebook
attemp
krull
##𝑇𝑇𝑇𝑇
reactions
lt
ward
##kian
##illa
incur
dfrac
multifractal
hirzebruch
ym
##42
##attices
obeys
fluently
##ikely
𝟑𝟑𝟎𝟎
sharpness
##afa
unlikely
resheti
cavity
n−
##inity
##olov
commercial
exposed
phrase
lossy
shells
dh
kms
##𝑭𝑭
##𝑐𝑐
##istry
carbon
centrally
furn
robert
projectively
frequent
expansive
incoming
synthes
##ordered
koop
excitations
hens
##vis
##atrices
nonequ
schatten
maximized
153
0000000
flatness
fle
pid
leh
supergroup
ruin
cramer
infrast
jim
tp
estimations
initialization
necessity
criticality
driver
recognized
compensation
impedance
bargmann
plurisubharmonic
venn
##aun
##wara
##ulates
quadratically
adjunction
##axis
shifting
fillings
happy
micros
believed
critically
susceptible
crow
∆x
##onstant
243
unlabeled
constitutive
screening
accommodate
reshetikhin
hos
qed
prey
231
indicators
dominates
stabilize
##baum
buc
eil
computability
defocusing
hardness
courses
tailored
searching
biqu
js
mouse
𝑥3
sofic
hartree
civ
janu
##with
seidel
heun
occurrences
aiming
subshifts
hemisphere
koopman
𝐴𝐶
outlier
correctness
wavegu
differentiated
compactified
website
bord
𝒃𝟐
##56
negation
thinks
degraded
nich
##ola
suﬃci
adjo
opportunistic
cultiv
dict
dagger
coexistence
protein
sinusoidal
monday
##ji
##01
phantom
calculi
exactness
absent
projecting
logarithmically
blocklength
speedup
whisper
ρ3
##imil
alike
atl
adult
hash
reconf
prototype
edi
−𝟖
homfly
birds
electrodynamics
street
instit
##twisted
densely
census
𝜶𝜶
##sup
##∆t
workers
curse
##𝐥𝐥𝐥
𝟏𝟏𝟐𝟐𝟐𝟐
peaks
##rophic
recommended
mittag
𝑇𝑇
##abc
##ansky
##ione
167
revise
highlighted
bisectors
williams
conﬁd
##exponential
volunte
january
bist
cro
##ira
unequal
twel
binding
heterogeneity
envelopes
honey
nq
##𝟏𝟎
hahn
##ametri
colim
ended
asymmetry
146
##parable
##𝟖𝟖𝟖
unstructured
surgeries
platform
satisfactory
fb
hab
##nu
##v2
##𝑶𝑶
##icious
timing
ourselves
##kson
analyzes
##brace
https
successively
gradually
harvested
hess
nin
san
wealth
oranges
178
##avitt
myst
𝟏𝟖𝟎
thoroughly
brill
##𝒉𝒉
##amb
subinter
cores
##arded
waveform
bregman
penalization
inferences
mystery
hing
lions
##ecess
noting
𝟓𝟓𝟒𝟒
town
resolves
##hara
##𝐮𝐮𝐮𝐮𝐮
concurrent
𝐮𝐮𝐮𝐮𝐮𝐮𝐮𝐮𝐮𝐮
rocks
##folds
lew
adver
dime
geor
𝒙𝒙−
elapsed
stickers
palindrom
a4
iia
lob
ρ1
##actions
##illary
widom
##igroups
##enthal
ultram
homogenized
##orthogonal
camera
reminisc
je
√𝟐𝟐
𝒙𝟑
##𝑺𝑺
##ription
##plet
##ffler
abcd
multipath
##issions
withdrawn
aquarium
tighter
𝟑𝟕
##quar
parac
##ounkov
subjected
pizz
jf
mou
##ahedron
##actic
flower
diffuse
penet
embeddable
anisotropy
interpolant
coalescent
ehrhart
eilenberg
fresh
s0
leavitt
leffler
multin
##ructures
biom
##𝟓𝟓𝟓𝟓
antisymmetric
popularity
subdifferential
buying
##ﬁcation
stim
spdes
equic
invis
voters
okounkov
4b
ao
kap
lte
ves
𝑎2
conting
fracture
##shitz
detectors
tikh
xl
slips
ski
saved
diagonalization
discretisation
dramatically
3g
f∗
gate
vr
##ulsion
##augh
microst
##planar
##perturbed
##√𝟑
##ationary
##owicz
examines
formulating
associativity
monads
robots
𝟓𝟓𝟑𝟑
render
happening
hydrogen
staircase
##erednik
maria
cere
jx
instruction
avo
illustrations
##ldt
temperley
anomalies
shirt
bang
dras
−𝟖𝟖
𝟑𝟒
##c2
##ession
weather
abbre
##opar
opf
motive
179
tangents
homogenous
tikhonov
420
rar
𝑦2
##vw
##𝒑𝒑
askey
frac14
sink
mars
preferences
pretty
##dp
diss
nonsymmetric
tried
186
guidel
debt
coproduct
mdp
reproduces
7wb4
eighth
sevens
conﬁdence
pis
tending
𝟕𝟎
cherednik
seats
metrop
apr
##rossing
touching
unsolved
autocorrelation
abbrevi
oﬃce
𝐥𝐥𝐥𝐥
##wer
disj
assimil
extraction
semialgebra
258
motivating
actu
winter
encouraged
stiffness
truck
cooling
reminiscent
4x2
kite
ou
##odory
##udinal
parents
reports
lemmas
flags
lcm
patients
multipartite
entails
avoided
α1
##ometer
ascent
##ived
parag
151
categorification
245
handled
cobordisms
electrostatic
1e
𝒔𝒔
prohib
shaf
nonpositive
homoth
149
cohomologies
miso
plotting
exceeding
𝟏𝟖𝟎°
monotonically
fz
kun
qft
vin
inhom
lossless
1983
reliably
kuramoto
stairs
replaces
bere
nord
pump
rating
∠𝑨𝑨
𝐹𝐹
##pan
##titions
unperturbed
payments
separates
𝟒𝟒𝒙𝒙
movies
ultrametric
𝟒𝟗
##ims
chris
cans
schre
blocking
235
offs
irrever
brou
fell
tie
##active
##urer
sciss
concret
189
141
easiest
decreased
deduction
solidify
bubble
physicists
gos
vafa
isot
mathieu
accounting
severi
friendly
xxz
##orrelated
administer
excursion
𝐭𝐭𝐭𝐭
wn
βn
𝒚𝟐
𝟔𝟐
##oded
coal
finitary
aren
firm
wkb
wo
𝑻𝑻
##sius
rotationally
insertion
eights
gum
kat
qq
vil
¯a
𝑋𝑋
##xm
ade
constellations
delaun
loose
tableau
symplect
adverti
ari
ea
△𝐴𝐴
compl
simpson
##ova
packages
semicontinuous
gases
ﬁve
##mp
haz
##allis
limsup
hyperk
requests
revised
handleb
argued
breakdown
adopting
curious
omit
erase
peers
becoming
scientists
ruelle
petersson
magnetohyd
twelve
delaunay
3z
tian
##chet
intric
graphics
afterwards
sharper
234
clustered
bird
1987
epimorph
petrov
nonconstant
subshift
pizzas
concretely
vog
##31
##gg
##stream
##rage
shop
##theta
scri
seeks
zeroth
drink
1985
enumerating
chemistry
reactive
longitudinal
##e−
in2
intimately
##asc
transaction
tries
##ibly
seeking
𝒙𝒙𝟑𝟑
formalize
blowing
strengthens
arrivals
quasiconvex
comprises
delivered
ith
ship
subharmonic
algebro
hypercyclic
139
dilat
##oherence
semialgebraic
##hlin
##𝒇𝒇
nonst
classifier
nullity
regulator
ormander
##sv
##bound
##asm
##amination
##racts
connective
networked
##equations
helic
𝒙𝒙−𝟐𝟐
mckay
eliminated
collaborative
forthcoming
deconvolution
confluent
𝐭𝐭𝐭𝐭𝐬𝐬
pitaev
rat
uf
##1055
goodness
cookie
subfam
pearson
hypoelliptic
𝑞𝑞
##uble
##stain
solen
meyer
pier
axisymmetric
##ahl
receiving
steinberg
gersten
pretend
fon
okay
##urability
perse
##istration
diagnos
bigg
referring
isogeny
manageable
confidential
ge2
offspring
subsequences
preconditioning
european
veget
3×
barn
𝟓𝟔
##ned
##a1
##88
##𝑟𝑟
2020
repar
##onde
##ourse
realizes
177
szab
cheese
voting
nester
sorted
tl
##aper
##zk
comprom
sustain
cofin
##uller
shapiro
dotted
diverge
summarizing
1960
manipulate
griffith
scissors
ky
oﬀ
##acs
proj
arb
164
𝟐𝟐𝟏𝟏𝟏𝟏
##𝟗𝟗𝟗𝟗
faithfully
dry
pets
tucker
##ao
##uly
reuse
10x
##jectivity
guid
listening
anneal
winner
szem
holog
jun
joy
q3
ven
x→
𝟓𝟒
##zi
##≥0
descending
crep
mp7
heteroclinic
𝑩𝑪
anxn
##ava
groc
##expan
proceeds
strategic
metastable
cash
β0
##seen
##riques
##ativistic
##ffee
inten
##encer
##yman
impulsive
superchar
strongest
shaping
transversality
ghz
bogom
##ench
graham
163
superspace
ellipses
knotted
fox
tubes
execution
allevi
vicinity
vk
∠𝑨
##mers
##𝐞𝐫
##leve
##oly
steen
deficiency
haager
telling
1950
tosses
bonnet
##aschke
metropolis
haagerup
iz
qm
##rans
##hi
##hs
##𝒘𝒘
##asts
peir
principally
dealt
1986
urban
subfield
silver
reversing
industrial
robertson
infrastructure
niel
##gen
172
neckl
repeats
rearrange
##llllllllllllllll
experiences
announced
doppler
eccentric
pitaevskii
holograph
𝒄𝟐
##fors
##−𝟔𝟔
##omplex
##anski
intra
polyc
strange
painleve
mcke
wheels
jobs
transceiver
##91
##dd
##yama
##ifold
recast
lett
sprints
carpet
magnetization
−𝟎
##most
##wald
boat
multiplications
211
labor
projects
mp3
bananas
𝟓𝟓𝟓𝟓𝟓
ahl
k0
pace
##lich
##vili
isa
articulate
aij
symmetrized
oblique
chemotaxis
vu
λn
𝟔𝟓
##list
stuck
##arevich
utilization
punctures
peirce
ˆf
basically
realm
suppress
dualities
mackey
pione
rides
sav
wp
zi
##owitz
proposing
parametr
regularizing
blaschke
blows
turbo
richard
inventory
hedging
parties
somewhere
aps
priority
snaps
protection
bsdes
streaming
##anese
spurious
peculiar
𝟓𝟓𝟓𝟓𝟓𝟓
wals
verones
operates
preim
specialize
gran
tent
−𝟏𝟏𝟏𝟏
##d0
generative
##aya
adel
205
verifies
semipar
##𝑫𝑫𝑫𝑫
hetero
fabric
4m
−𝟕𝟕
##pon
##analytic
##omer
##ously
squee
hyperka
boos
𝟕𝟕𝟏𝟏
drug
iwah
enclosed
cultivate
bent
zig
△𝑨𝑨𝑨𝑨𝑨𝑨
##arov
attitude
coffee
subsem
##gebra
faced
ultimate
−𝟕
𝐵𝐶
##ulin
nevan
##assen
polyd
2xy
facet
bsde
billion
votes
nielsen
166
singularly
frequenti
tangency
##andering
hopping
reinforce
##hyper
frozen
soda
conflict
lexicographic
##10551015
nski
sj
△𝐴𝐴𝐴𝐴𝐴𝐴
##−8
##olod
##ella
numerators
hypothetical
𝟖𝟖𝟏𝟏
xyz
informed
𝟏𝟏𝟎𝟎𝟎𝟎
augmentation
motor
ancest
umbil
nevanlin
basin
featur
alphabets
nevanlinna
pep
sib
sss
𝟐𝟗
##85
##ifer
season
##assa
unders
locating
mathematician
frac1
174
markers
summability
##zzi
noncrossing
##vanishing
confinement
¯¯¯¯¯
cereal
iwahori
son
##uel
##odular
variate
##vester
powered
##𝐀𝐀𝐀
qk
u∗
##elov
quiz
twelf
enters
deter
phy
respects
arrived
##vector
attaining
girl
seeds
tqft
interchange
trouble
celsius
veronese
mock
−b
𝑏2
nonvanishing
subl
crank
communicating
vartheta
keys
transparency
berezin
crepant
mckean
walsh
boosting
qi
##dc
##𝑥2
stems
##idences
dimin
conjecturally
roof
treewidth
45°
374
talking
majorization
inherently
inherited
lindel
multinomial
n→∞
wz
𝑿𝑿
##sev
##sov
##ipt
radian
passenger
differentiating
stef
eliminating
medicine
stek
hair
impacts
224
uncorrelated
radem
displacements
xnd0
semimartingale
cold
vt
𝐥𝐧
##−𝒙𝒙
arbitrage
winding
nyquist
pipe
shafarevich
semiparametric
ues
##till
##inomial
##chikov
bandit
625
bmatrix
terminating
adjustment
forecasting
nilpotency
lou
rud
##ρ1
##arelli
##fying
##olet
raising
sender
predator
multiset
dielectric
rademacher
gue
𝟗𝟎°
ons
##terp
spor
marking
meanings
couples
contributes
offering
##𝐥𝐥𝐥𝐥𝐥𝐥
hydro
##expansive
bz
xt
##87
spencer
clare
moons
##ovo
stark
instabilities
polyomin
246
sketches
tuned
suffice
isolate
renaming
guidance
c0
ore
𝟖𝟖𝟖𝟖
##graphs
##𝒌𝒌
##𝑻𝑻
##urling
subb
##ramm
geq3
barriers
sketched
##bridge
attachment
e2x
castel
amalgamation
sylvester
reconfigur
##hou
##alog
wear
observers
summaries
purple
misspec
wideband
floating
kinetics
audience
kinder
pw
##𝑧𝑧
ali
##ribe
introductory
wrons
runtime
transitively
tractability
elicit
infeasible
kashi
nite
##lds
beurling
overs
swap
segmentation
##ontinuity
crucially
tumor
schreier
eve
rach
##oe
##enhu
ellipticity
complementarity
1984
interpolate
##pheric
##cherel
davis
frequentist
qs
rw
##jk
unir
trim
##relativistic
214
progressive
restricts
𝟓𝟓𝟔𝟔
##manifold
informative
##kovich
zelev
laced
hjb
subdomains
zamolod
##ran
##ender
trail
𝑥𝑥3
drivers
##𝐜𝐜𝐬𝐬𝐬𝐬
kuz
voter
reprove
gree
tions
##grad
##had
##𝐴𝐵
notable
perimeters
##agon
plancherel
handed
discretize
triggered
molecule
wilf
annealed
zamolodchikov
u3
##tude
##ayama
regroup
schramm
159
omitted
demaz
raises
mcm
influenced
entering
planted
pbw
syzygies
𝜷𝜷
##ja
##×n
tracy
##ague
robotic
strengthened
kleinian
manipulation
camassa
uncountably
allocated
demazure
cow
dess
sag
##usive
##03
##aping
contamination
impair
axial
horizons
multiplies
hydrodynamics
rocket
damage
civita
lighter
𝜽°
##real
switches
inherits
maslov
##rolled
spreadsheet
encryption
kashiwara
##win
##etlin
assets
##iped
approached
conceptually
fundamentally
expander
highlighting
laminations
##physical
snapsh
buck
duc
##nc
spite
##entiation
slots
containment
offset
taught
influences
rolled
##quartile
nesterov
boll
𝑉𝑉
##pinski
##pherson
interquartile
recep
discret
guiding
catch
celebrate
##6422
enlargement
yk
##urf
##agl
##haber
247
correlators
reinterp
friedrich
philosophy
corroborate
ahlfors
##how
##imoto
##utation
trud
quantifier
offloading
international
##ebner
burnside
innovation
craft
##rho
##52
##itri
##olynomial
##sie
##anson
muller
ge0
##ubov
smoother
experts
perme
tennis
𝟔𝟔𝟒𝟒
convenience
virus
parametrizing
zhou
dnn
acquire
collapsing
tetrahedra
sheds
equipment
1t
aka
mph
began
sports
##orms
nonexpansive
transposition
emb
equalities
a1x
##−𝟏𝟏𝟐𝟐
interfering
eigenspace
shelah
anchor
e4
gb
pj
tues
vf
##uous
stern
##sians
annot
transmits
prize
concatenation
roller
antiderivative
assimilation
hl
mary
subexponential
##oss
probe
193
carath
negativity
spatio
varrho
recalling
##oooo
deleting
benjamin
sierpinski
π2
##jima
##jasiewicz
sees
leak
slab
glau
trains
wald
𝐟𝐭𝟐
##nuovo
steenrod
steklov
a−
nij
ws
formality
##heim
groebner
gerbes
rhombuses
isogeometric
castelnuovo
aq
nest
za
newman
uniformization
thirty
recurrences
macpherson
sketching
consuming
nerve
vanderm
edition
junction
nematic
𝑃𝑄
##×𝟏𝟏𝟎𝟎
##thaul
commit
approximants
271
elast
trapezoidal
checks
6wb6
fronthaul
bowl
intricate
h0
##ete
conden
chick
truly
##ractive
𝟏𝟏−
automated
conductance
balloon
society
040
##pital
##rings
##ui
##ersen
scr
remed
elliptical
cm2
##ibrium
375
bert
reachable
floquet
batches
friedman
accompany
pertaining
prohibitive
conics
register
cartier
backp
propagate
admissibility
unfolding
cosmic
susy
polymers
balloons
kram
𝑬𝑬
𝒍𝒍
ono
propositions
##cients
visually
𝟓𝟓𝒙𝒙
failed
geogebra
hulls
wishes
chamber
2×2
mismatch
##usp
##iano
kneser
processor
sequencing
marg
stepsize
##−10
##conver
fibred
##issa
semiring
tissue
hessenberg
brac
vassi
##57
##ﬃcul
limx
bohm
assertions
athle
accompan
ultrafilters
stefan
ase
lots
women
##zkin
reject
outgoing
priya
magnitudes
colourings
equidistrib
eigenspaces
monopoles
##enhuis
tuesday
glauber
vandermonde
5in
hell
p−1
vp
v∗
vote
𝑮𝑮
##ula
diﬃcul
pupp
fatou
motzkin
zelevinsky
lvert
𝟕𝟕𝟕
##𝑘𝑘
##entropic
##emy
plain
moyal
serial
171
##rupt
readers
hookrightarrow
overdetermined
nines
roth
ω2
𝐀𝐀𝐀𝐀𝐀
##otal
unmann
feig
lamination
clearer
burst
ferr
symmetrization
##liev
unmanned
fans
hay
ties
##tes
##hari
##−𝟖𝟖
##onent
ald
matters
clin
##usting
mathematica
backwards
dominance
engel
1982
infrared
semirings
nutri
adelic
6th
bread
fort
chir
203
phas
approximable
segel
gaudin
darcy
poorly
release
caval
bollob
9x
bass
fad
rose
uj
##54
12x
realizability
##𝟑𝟑𝟐𝟐
stabilizers
cats
imposes
unfold
ghost
1f
jeff
∠𝐴𝐴
##uj
##isotropic
ifs
lock
260
braiding
diagonally
henry
culminating
joseph
5y
q0
##cence
##tiles
spe
208
dipole
##anner
##orses
identifiable
𝟓𝟓𝟎𝟎
60°
fdr
ols
wyn
whate
executive
chess
nonrelativistic
superpotential
##𝟒𝟒𝟒𝟒
bigcup
specifications
engage
denoting
undergoes
ascending
3rd
000000000
griffiths
sporadic
whatever
fv
rst
##vant
##odsky
expense
##rams
amper
sampler
quantifies
253
##ashvili
reconstructions
predictable
discretely
412
dj
mann
smash
evans
confusion
fuj
##neider
##𝐬𝐬𝐬𝐬𝐬𝐬
calibrated
zum
𝟑𝟏
##berry
grap
transf
##oked
217
semantic
resilience
suffers
grocery
bri
bump
teles
𝟑𝟖
##wr
##bard
nonaut
subaddi
##agne
ge1
𝟐𝟐𝟗𝟗
authen
concluded
publication
510
qam
##y3
##2t
##istrib
flipping
furst
272
rankin
afford
lawson
##ctor
sake
𝟏𝟐𝟎
encoders
emphasizing
acquired
eavesdroppers
comprising
undecidable
listing
mol
##𝐞𝐧
##sification
##quis
prun
321
lifshitz
berkovich
1981
𝑎𝑎2
1978
interpolates
gerbe
dolbe
nonautonomous
fw
gates
hep
kt
rvert
sse
sab
##hain
##𝒔𝒔
##ogs
##ado
contest
pairings
helped
adjusting
predicate
projectors
snake
naka
fitted
governs
diffusivity
excluding
convey
4𝑥𝑥
kf
lv
nous
##89
##plot
##orkin
204
##ishi
views
termination
bedroom
reservoir
dolbeault
3e
aside
ease
hiding
ˆθ
##water
##−k
##√3
##ilibrium
noneth
leon
delocal
uncoded
postulate
guidelines
furstenberg
kz
nyi
##fish
##isers
aspherical
spo
209
interrel
laz
packed
compositional
refining
metaplectic
removes
##efel
copulas
xnd1
household
nijenhuis
nonetheless
5n
ahar
##86
##𝑳𝑳
##ometry
pand
repulsion
emo
poses
factorisation
covariate
7wb3
puzzles
ellipsoids
fulfilled
contrasts
coercive
caffarelli
vb
##rid
##02
vectorial
##valued
stiefel
farmer
morris
positioning
##harov
thousandth
eyes
unobser
gerstenhaber
fbs
i0
pon
extracting
country
##spaces
paying
emphasized
scaffolds
gradings
desingularization
persevere
𝟑𝟗
##−𝑥𝑥
##73
beat
202
enriques
associating
helicity
𝒙𝒙−𝟏𝟏
skor
horn
unbal
##𝐮𝐮𝐮
commutant
burden
enlar
tied
##anin
##oman
##stell
chor
genes
gauged
movements
##projective
tessellations
amalgamated
zakharov
dial
kth
nim
s3
vital
xd
##lot
##3x
modest
homotopical
abstraction
𝑦𝑦2
foam
##simil
##break
1st
6𝑥
dum
fand
##etor
reis
pock
param
metal
geost
heffer
##ycl
##know
##108
bottles
joins
genealog
##𝑅𝑅𝑅𝑅
forecast
nicely
bracelets
authentic
hefferon
315
dod
klo
lon
𝑠𝑠
isentropic
neat
corona
##ibre
quantizer
superf
bigo
essence
𝒚𝒚𝟐𝟐
caten
##beit
traced
accumulate
drastically
pints
𝟐𝒊
𝟖𝟏
##ricks
resulted
detects
install
entr
𝟑𝟑𝟕𝟕
rado
##eker
mesoscopic
replication
dyldt
climate
eleventh
pulses
father
lesssim
prym
##ancies
robustly
arriving
erasures
reciprocals
instrumental
lqg
cavalieri
bib
nat
wl
wik
△𝑨𝑨
##→0
##itter
quart
undefined
##𝟑𝟑𝟑
biholomorphic
parallels
midline
236
visited
protected
cosmology
strawberries
laser
trucks
##garten
𝐀𝐀𝐀𝐀𝐀𝐀𝐀𝐀
reph
soluble
207
localisation
analysing
quantizations
markup
costly
eli
checklist
miss
decodable
##bss
parametrize
tsallis
sandp
sturmian
hubbard
mandel
paragraph
r0
command
district
irresp
𝒂𝒂𝟐𝟐
maintains
8wb2
gilbert
cq
tsp
λk
##b1
##sted
clips
energe
##scatter
parallelism
223
0001
memor
fills
penalties
tournaments
4c
ced
##rell
shelf
##atile
flav
biorthogonal
bicategory
zk
##𝒀𝒀
thue
trinomial
requested
255
medians
chairs
virtue
summarizes
semilattice
strands
atmospheric
kindergarten
vassiliev
horses
mh
wandering
αi
##acyclic
mathop
##through
basics
##akis
##𝟏𝟏𝟔𝟔
linkage
##tenance
backscatter
nambu
snap
𝟔𝟔𝟑𝟑
stores
incompati
skyrm
##hard
##𝒅𝒅
##ecreasing
paraf
subcomplex
##advant
additions
specializations
observes
275
classifies
classiﬁcation
30°
quasiperiodic
cope
9999
huang
neighbours
srt
bubbles
roman
krieger
holomorphically
dispatch
condensed
wyner
fh
ˆβ
𝟔𝒙
##hon
maintenance
##heimer
submatrix
binomials
cyclically
##week
arak
xe
##lik
##kal
adam
schneider
waveforms
customary
exclude
industry
frie
𝛼𝛼
##wan
##tism
disadvant
nonco
thoughts
risks
##atake
𝜽𝜽°
dropping
nickel
unicast
subfactor
transfers
sought
##lings
##otz
midpoints
cdma
##linde
8wb5
obeying
interconnected
eﬀect
subscheme
toolkits
bik
weno
##tines
grouped
representability
upsilon
contract
shortc
365
gapped
kiran
cryptosystem
cameron
olya
kink
tab
𝐥𝐥
##present
verlinde
hypers
ldp
morgan
##holder
arrives
##upervised
habit
##stellens
kis
nz
𝟖𝟓
##b2
##quare
unordered
corn
signiﬁc
marching
cardinalities
##ezing
diﬀerentiable
preparing
nichols
1√
2𝜋
##z2
##uda
metam
ballistic
isomon
synt
inspection
exchanges
august
unpub
sarah
ama
cable
vas
𝑸𝑸
##fem
##84
##tinger
grain
assistance
doi
𝟑𝟑𝟗𝟗
covert
𝟒𝟒𝟎𝟎
349
accordance
landing
opinions
carlitz
nondecreasing
pinky
szemer
##ransm
𝟕𝟕𝟕𝟕
cis
ov
pes
𝟒𝟏
##top
##83
##olic
##resolution
logically
semid
325
gender
drives
a2m
merging
yetter
aggregated
##ijn
condensate
ignore
throws
exclusively
disciplines
accompanied
unpublished
rok
wet
##lined
##63
##hal
##𝐍𝐍
##aro
##ouses
arth
multivalued
fourfolds
ax2
handles
loses
workshop
𝟏𝟏𝟏𝟏𝟗𝟗
analogously
convinc
cobound
suther
isothermal
isomonodrom
bing
das
yx
𝐮𝐮
##cr
##74
##ﬁed
##iders
levin
acknow
perelman
extr
annular
visualization
deeply
socle
cpu
embeddability
resemble
intermittent
nonequilibrium
sutherland
414
512
auc
bish
cab
t3
##53
andr
stag
nonassociative
transpositions
semip
252
##arnak
vanilla
organizing
settled
spikes
unrelated
mw
sarnak
𝐮𝐮𝐮𝐮
##pa
##otion
##ronom
albeit
sept
monster
helper
attenuation
𝟗𝟗𝟏𝟏
inherit
drinfel
teichmuller
nxn
contravariant
comodules
nonstationary
∇j
𝟎𝟏
##iently
##odel
unclear
explosion
entities
##ographical
1979
antichain
insu
##klund
voev
annihilator
textsf
inaccurate
irreversible
ampere
v3
##idability
comon
chunk
coisotropic
infec
inverting
grant
288
translational
conserving
stackrel
reﬂection
unnecess
featuring
twelfths
reception
pz
sac
∠𝑩
##ented
bez
structurally
homomorphic
precip
deforming
justifies
python
vehicular
fixes
##uspidal
reisner
1i
akin
ih
rie
𝟎𝟓
𝟒𝟑
##iability
##uish
##vas
mather
defic
##antly
technically
became
focal
290
suggestion
concentrations
##ebel
gabri
portions
hawking
comfortable
george
fomin
hoff
jay
mine
α2
##62
processors
salary
setups
unsupervised
octahed
gmres
collaboration
glasses
nicol
hirsch
waveguide
hazard
voevodsky
##𝐞𝐞
##ila
rejection
##andom
verif
##𝟏𝟏𝟓𝟓
scoring
circumvent
tubular
##mona
##oherent
brunn
holographic
socks
##hine
##atomic
##ardi
conce
##uri
bead
spde
##atist
unsh
##arev
227
##offel
claw
ultras
1976
𝟑𝟑𝟑𝟑𝟑𝟑
affirmatively
classmates
dilatation
heterotic
irrespective
ton
𝑭𝑭
##p2
##tl
##vec
##amini
##chuk
dixm
##ellar
monograph
toral
riordan
odds
282
picks
##lesson
vietor
##copy
submitted
attainable
preferential
sommer
crystallographic
onsager
dixmier
vietoris
7th
arose
##rg
##ici
pron
propos
quantiles
originating
expanders
walked
##after
𝟗𝟗𝟐𝟐
transcendence
amplification
comprised
christoffel
1n
610
ux
κ1
##lag
mathit
##ologous
worlds
221
1975
inductively
experienced
departure
coefﬁcients
rokhlin
fft
migration
yosh
𝜃°
##pik
##sability
##𝐹𝐹
thre
implements
astronom
advantageous
kelly
academic
moonshine
unbalanced
aub
muc
tg
ﬁll
##oz
##∙𝟐𝟐
mads
inflection
324
fewest
mp2
##symplectic
broadly
parametrizations
cryptographic
bakry
aper
lich
zp
¯b
𝟑𝟎𝟎
##tle
##left
##tery
clut
methodologies
contempor
frust
cred
244
##𝟏𝟏𝟏𝟏𝟏𝟏
triplet
reflective
companies
earthqu
xxx
leverages
𝐜𝐜𝐦𝐦
seshad
4th
dans
m∠
##ipped
to0
##separable
synd
tris
analogies
##ifying
248
##istinguish
480
waven
##isco
fertil
attacker
kkt
databases
pivotal
i3
satake
tro
tabular
xz
zon
𝐦𝐦𝐦
##cell
##uity
##bons
##alin
##usa
adc
peri
overconver
##deev
1973
nakayama
rarely
020
fq
koch
##oa
##veness
##onym
##enes
##asep
##oses
prevents
localizations
inversions
stringent
concentrates
ﬁnal
deleted
petersen
french
aldous
jk
l0
𝑀𝑀
##pread
##sa
##𝐛𝐛
##arian
notin
decoherence
eleven
feff
hypered
scatterers
𝟏𝟐𝟓
ft2
ultrap
pinning
##graded
subschemes
superstring
5𝑥𝑥
bch
rack
##−7
##urin
##vergence
sups
nons
219
##ikq
evaluates
345
refines
prescription
discriminants
session
seshadri
cad
gest
##era
##asz
##iment
overrightarrow
frac34
feb
191
distant
##iao
notebook
218
239
court
a11
promote
𝒃𝒃𝟐𝟐
𝒎𝒎∠𝑨𝑨
fuchs
invented
regenerating
kuznet
2𝑦
ara
dq
kom
kpp
lun
pra
u00
𝟖𝟐
##nings
excessive
mining
##agic
emission
mart
##okhod
254
corrector
268
fake
005
irrationality
benjamini
ultrafilter
supplies
handlebody
skorokhod
csp
ltimes
lcd
##yb
##wicz
##zh
##isky
an−1
expressible
derang
##oking
inverted
peb
domino
cupc
396
relaxing
gallai
eliminates
1977
graduate
ginibre
−→e
bordered
faddeev
sandpile
fefferman
epo
mec
##p1
##kas
marsh
specializing
quadrants
semicon
sunflow
parisi
brouwer
7r
d3
fench
ie
##ranov
##81
isopar
clocks
seism
grained
underd
indoor
yourself
nonlinearly
frechet
countries
adaptivity
##−12
successes
clarified
anticipated
interconnection
albanese
subfactors
kuznetsov
fenchel
ema
gur
sor
trem
##−9
thumb
##ulis
untwisted
examination
april
inclusive
triebel
liminf
hey
scan
loading
classifiers
228
schools
selections
hofer
stopped
massey
isoparametric
5d
d0
pill
tz
−15
##tie
##irnov
##unce
chines
knuth
frac23
surjectivity
posit
herz
intelligence
barycentric
restoration
ˆt
𝒒𝒒
𝟒𝟎𝟎
##4x
##¹k
##iner
equitable
indistinguish
smirnov
complexification
consumer
factorized
𝟒𝟒𝟖𝟖
mp6
##𝝅𝝅𝟒𝟒
e2t
psd
enforce
department
lizorkin
ej
mam
##brot
quantisation
runner
retransm
terminates
critic
retrieve
abundance
chinese
fare
##table
##ws
##titive
stam
subdi
##pop
heard
sque
conveniently
reversibility
##ogenic
𝐜𝐜𝐜𝐜𝟐𝟐
vacua
cyber
bowen
beauville
dinner
constituent
friedrichs
clinical
emotional
mucken
supset
1g
##tan
##ua
##𝑜𝑛
##olvable
resist
multiresolution
recol
fran
##ochem
originated
𝟐𝟐𝟏𝟏𝟐𝟐
quasim
##osterman
𝟔𝟔𝟓𝟓
violated
dyer
transversals
circulation
batteries
bogoli
¯¯¯¯¯¯
trudinger
arthur
wides
##cap
##fang
##49
proficiency
##that
##osis
processed
dualizing
quasip
downarrow
millimeters
𝑏𝑏2
crosso
tetrahedral
bruijn
lewis
##houpt
##stellensatz
ccc
ding
𝐺𝐺
𝑣𝑣
##ressibility
coag
##ermann
armed
news
firing
schott
subscri
homologies
hypercomplex
lambert
neglected
practition
guo
232
veech
emergent
dictionaries
##rophy
mkdv
polylogarithms
bordism
kloosterman
012
511
lanc
x6
αn
√𝟏
𝟔𝟑
##word
##isk
statist
nek
purity
banks
losing
381
𝐢𝐢𝐢𝐢𝟐𝟐
ross
constituents
vilkov
gj
jets
rq
##hes
##orsion
##ali
##ime
choles
adcs
equalization
worry
241
choosable
integrands
¯¯¯¯
racah
subfamily
wronskian
bishop
muckenhoupt
3s
hg
𝟓𝟑
##erequis
differentially
algorithmically
prequ
omp
##ullen
222
expands
jacobson
𝟕𝟕𝟑𝟑
999
ultrad
supercuspidal
svm
crackers
rabin
subcarrier
bogomolov
insufficient
bogoliubov
widespread
cater
jn
nj
##iance
##elds
##igure
206
intercepted
straton
##rasov
frid
##tricted
##cience
postnikov
polytop
kuhn
hereditarily
anticipates
ignoring
contours
subordinator
nikod
gent
lll
onð
##plets
multigraph
contamin
predefined
330
owner
lotka
insul
tsetlin
360°
ignored
functoriality
##ultiplic
6y
p4
qa
rj
warn
##nn
##h2
##−∞
chicks
##ructed
metabelian
basins
sitting
237
interpretable
myster
750
airplane
##ivalence
cheap
890
batalin
subdivisions
navigation
penetration
proposals
gior
rug
##r3
##zel
##ticle
##ractions
##iana
scalings
buff
264
poissonian
𝟏𝟏𝟏𝟏𝟏𝟏𝟏
richer
compounding
bucket
entrance
bie
eth
ya
z4
##lund
##𝟕𝟓
isoc
##enter
##imited
anec
alarm
##umi
shots
rests
##chine
##teenth
##ogue
relu
hyperpar
263
lightlike
rewards
1974
distinguishes
##pheres
inﬁnity
garc
ddot
immigration
irrelev
staggered
bim
hanger
n3
zha
𝐚𝐫
##qoik
##rons
##29
##gd
##gie
##sohn
opt
optimizes
hypercon
potato
raw
longstanding
grace
eld
267
packs
bandlim
breakthrough
divisorial
##ourable
reinforced
innovations
vilkovisky
stratonovich
8𝑥
eodory
fub
hiro
vill
##𝐨𝐥
##ince
whil
clou
dip
cremona
severely
quantifiers
rotor
geodesically
facility
guesses
portra
iota
concatenated
nakajima
ox
vul
yz
##oon
##ipp
##otti
dose
realised
##erner
monadic
balances
berge
tightly
bridgel
elucidate
eccentricity
epoch
schottky
8mf
dad
latest
𝑪𝑫
tok
antim
specht
sinai
founded
adapts
pean
peano
proportionally
bcs
bmod
demanding
##𝝅𝝅𝟐𝟐
𝜃𝜃°
ozsv
moufang
whilst
foci
ounce
##oric
inev
island
##vey
sher
undes
carm
x2m
recursions
swipt
arithmetically
owing
resolvents
enumerated
moderately
accumulated
badly
prototypical
coercivity
henselian
script
bridgeland
gx
##fron
##ueller
##𝑡𝑖
suz
unve
dissimil
probing
quantize
basepoint
horos
birman
trigger
cancell
bailey
renormalizable
economy
azum
bilateral
retains
lacun
incurred
aharonov
jl
till
x∈
##oul
##otical
##𝑯𝑯
##𝐲𝐲
##ico
isi
anharmonic
##die
perception
hastings
roy
descript
𝟑𝟑𝟖𝟖
closes
333
##ulescu
succ
##rystals
bbbk
##beau
lacking
inferred
confining
antipode
certificate
accompanying
unnecessary
fubini
pims
xs
##oin
##tub
##wind
##−𝟕𝟕
##alk
exci
##iring
sund
subqu
graphene
complexified
continua
freeze
𝟏𝟎𝟐
𝟏𝟏𝟐𝟐𝟏𝟏
bisect
plateau
neuron
torsors
deterior
geostrophic
crossover
##𝑡𝑖𝑜𝑛
exciting
bull
hw
##ei
##isable
dimensionless
repd
regularizer
capillary
targeted
enhancing
mirrors
attributed
pleth
##iﬁcation
pentagons
bearing
ﬁgures
cofibr
prolongation
unrestricted
8th
fern
oss
x−1
πx
seat
append
undergrad
preprojective
coupon
233
367
cotorsion
slep
participation
fragments
##integral
compensate
galilean
occasionally
ordinals
contemporary
jill
##bas
##onen
ongoing
resampling
moti
##comb
outd
love
##icki
polya
exchanged
collects
##𝝅𝝅𝟑𝟑
killed
bypass
droplet
lemonade
suﬃcient
##agnetism
overconvergent
clouds
bach
lays
##poi
ours
soil
subsum
trait
compart
gaussians
retract
transience
publish
−𝟏𝟎
dmt
teichmueller
pentagonal
anticipate
exposure
marcus
permeability
eik
merc
rkh
##ahedra
##−𝒃𝒃
##𝐿𝐿
##rap
cloth
cok
verb
asymptotical
257
helix
249
266
transferred
causing
rna
epist
050
supplemented
eqref
wolfe
allocations
ˇˇˇˇˇˇ
submersions
##processing
institute
anecd
7mf
dft
fis
laps
mcd
∠𝐴
whith
suble
##forming
##akh
265
extremes
314
harvest
tolerant
##𝐕𝐕𝐕𝐕
html
unavoid
palindromic
lec
piano
rises
𝐶𝐷
𝟓𝟏
##bn
##ora
##ulty
##alling
eleph
signless
beck
##ogeneities
##iscrete
finishers
tradeoffs
dolph
colimits
reparametri
infectious
squeezing
coagulation
hirota
slepian
bile
gym
zones
−√
𝟗𝟓
##kar
##facts
react
unary
unification
##ells
cardi
loos
invert
226
schoen
trell
dominate
exploitation
integrally
rearranging
antipodal
gan
gsp
iu
##zers
##olid
therein
integrates
orderable
evident
##ofth
scene
unitarity
273
normalizing
𝒙𝒙𝒚𝒚
promise
##𝐢𝐢𝐢𝐢
beamformer
##𝐜𝐜𝐜𝐜𝐜𝐜
vulner
pimsner
cous
election
fic
lond
nds
##mark
##oeb
tour
contig
##ongru
localised
hyperm
weakening
wavefunctions
262
295
jacquet
bicycle
removable
maintained
coarsely
dressing
bq
bw
draft
gut
iq
µj
−𝟗𝟗
𝟓𝟖
##pat
##inner
alo
##idity
shah
##ifolds
##commutative
sharply
340
nuis
adjointness
renders
stabilizes
merid
stacked
tanaka
mrc
anticanonical
−→f
compensated
frenkel
impairments
september
3j
cited
fel
moll
qcd
uq
−𝟗
ﬁelds
𝟗𝟐
##gun
##zm
clark
##complete
##cessible
genericity
swarm
conduction
dfldx
diﬀerences
competit
maxwellian
eavesdro
aaa
subordination
instrument
nπx
paraferm
bins
lut
forever
parse
##ogarithm
appell
𝟒𝟒𝟗𝟗
00000
𝟔𝟔𝟖𝟖
electrom
rewe
ruan
pursue
payoffs
coboundary
cupcakes
bilevel
2v
##ych
##storm
##icher
client
peres
transfinite
registration
##ello
334
cdf
𝟖𝟖𝟐𝟐
profess
reproduced
proceeding
escaping
menu
##𝐜𝐜𝐜𝐜𝐬𝐬
chambers
syzygy
practicing
presheaves
equidistributed
extraneous
bandlimited
pach
rv
rider
y000
𝟐𝒚
##41
##ﬁer
##imally
coaster
plum
differing
prerequis
anywhere
##fficiencies
roz
𝟑𝟑𝟏𝟏𝟏𝟏
harq
dilute
accessed
merits
scheduled
precoders
lacks
7wb5
juan
activate
dickson
printing
ρ2−→
contrapositive
giorgi
2𝜋𝜋
dream
##−𝟐
##79
outward
outstanding
subsection
choquet
shortly
thermo
catast
dispersal
khint
kapranov
precipitation
pitch
##−−→
onset
beep
##thest
regress
regularisation
cubature
centralizers
##101
painting
touches
sesqu
lindbl
convective
sextic
pruning
enlarge
nuisance
720
rum
##estim
##anishi
##pov
transactions
moeb
dilogarithm
##hnik
majorana
causally
𝟏𝟓𝟎
jammer
magaz
released
unknotting
alleviate
mandelbrot
4s
jor
nv
##eu
##zos
resur
##ieg
##enses
existential
distributing
closeness
behaviours
internally
437
merge
nonconforming
manipulations
comprise
mitigation
interlacing
moebius
f3
##dma
##imation
nonis
##agi
centrality
piles
inserted
anecdotal
cer
ller
zip
##47
##hole
ants
matric
problematic
##opological
descents
affecting
helping
codebooks
biggest
mimic
outerplanar
igusa
comodule
systolic
squeezed
whitham
3u
gone
i4
wf
𝐚𝐚𝐚𝐚𝐚
𝟔𝟕
##xk
##fast
##rt
##tsev
##olume
queen
acklund
somehow
##agami
##𝟒𝟒𝟐𝟐
238
289
𝟏𝟏𝟏𝟏𝟑𝟑
discovering
fluctuating
##airs
soup
poured
annuli
attempted
mysterious
cit
pins
𝑷𝑸
##zag
proces
exer
##aint
##unctive
arq
arves
##ptotic
phd
motivations
degenerates
extremals
concentric
nonnegativity
beside
unsteady
circumscribed
consumed
proceedings
schwarzian
waterm
##weighted
jiang
bistable
barnes
cholesky
css
dance
mice
panc
##rco
##yx
##inely
##elberg
clip
##agrand
##engers
scroll
distorted
skly
296
posted
annealing
socratic
emery
contracts
tiny
volunteers
magnetohydrodynamics
polyominoes
diﬃcult
lanczos
arveson
kids
λ∆t
𝑫𝑬
𝒖𝒖
𝟎𝟐
##ios
##𝒒𝒒
apprec
interests
overcoming
scholes
colom
maximality
distor
glued
251
textbook
3398
formalized
deﬁning
pm1
eraser
##𝐖𝐖𝐥𝐥
diamonds
zeil
cochains
inefficient
subintervals
margulis
aloha
kw
lod
nad
unweighted
upwards
heeg
##ovari
flaw
linden
259
designated
predual
specifies
searches
##balls
synchronized
tricky
hopefully
symmetrizable
homothetic
irrelevant
khintchine
sklyanin
mz
pel
¯u
𝛽𝛽
𝟕𝟖
##f2
##wed
##−𝟗𝟗
##ρ2
generations
seym
##ief
outbreak
characterisations
flops
x2y00
eventual
returned
justifying
rooms
garside
invisibility
##urface
##itriangular
seymour
jg
jb
lx
s4
√𝒙
𝑏𝑖
##cp
##cm
##gren
weib
##achev
subp
imbal
1012
repelling
##agog
##violet
ams
ideally
beth
weakened
curvilinear
biochem
toolbox
spark
bigra
symplectically
flats
steering
puise
occupy
##hausen
wonderful
𝒎∠𝑨
retaining
fruitful
resilient
jenny
intensities
feigin
authentication
0x
c4
gowers
kq
menger
ruling
sed
ury
yan
θ1
##body
##σ2
##𝐂𝐂
sport
##channel
solv
converters
distributionally
eigenm
caps
advoc
symbolically
encouraging
bisection
ultraviolet
photons
pedagog
contradicting
indeterminate
unavoidable
3m
rau
sx
𝒆𝒆
##fa
##uyama
##bcs
##𝑓𝑓
invers
##istive
##ouad
exogenous
shen
##urewicz
cole
##soph
assouad
converts
grown
tangram
299
degeneracies
extremum
##forth
unlimited
organizer
chernoff
xy0
clarifies
tropicalization
pinching
noticing
kinematics
azumaya
puiseux
1lesson
a5
wing
##upp
##82
##atched
##omes
isolation
distill
overpar
pretz
##eyer
buse
##venport
satisfiability
barb
2x3
accelerating
asserting
voic
bracelet
stemming
spiked
dendri
gabriel
nh
oma
##ahedral
##tation
##quier
##ilov
unde
knaps
suppression
wavefron
𝐴𝐴𝐶𝐶
truncations
renormalisation
davenport
disagre
peterson
gathered
pell
𝟗𝟔
##from
##i2
##hibit
##𝐞𝐜
##pless
equator
meager
invasion
preven
imprec
presum
standardized
roe
𝒙𝒙−𝟑𝟑
269
missed
conjugated
gasket
revisiting
discrimination
##enbud
occupancy
shopping
6wb2
##𝐝𝐝𝐝𝐝
censored
𝐮𝐧𝐢𝐭𝐬𝟐
sommerfeld
distortions
urysohn
eit
fug
mj
pom
r4
riv
tac
wei
##amata
cofinite
##ularity
recomb
1900
errone
starlike
learns
passengers
nilmanifolds
talagrand
irregularity
##hyth
tunneling
drawbacks
1p
brie
jel
lid
nelson
##rit
##ribing
intention
discern
telev
axially
farthest
borcher
##athon
𝟖𝟖𝟎𝟎
consumers
infinitesimally
inconsistency
semiflow
interleaving
rachford
𝐥𝐥𝐖𝐖𝐥𝐥
jm
jon
𝐴𝐴𝐴𝐴𝐴
##bor
##⎥⎥
##⎢⎢
##onally
asa
worker
enon
##omorphically
realisation
##ofunc
rapo
admission
301
313
311
utilities
lyub
enhances
2y0
𝐢𝐧𝟑
publications
7wb6
immune
submersion
wzw
lacunary
television
6n
drum
hang
rbf
𝑒𝑒
##zis
##edia
##sia
commission
##poons
##ideal
definiteness
ringel
tensorial
pseudor
storing
3x3
##odynamics
polymat
##random
epidemi
##auty
µ1
##rust
##acoustic
rebound
nonin
##pley
enorm
howe
timescale
285
370
entity
1971
collapses
discrepancies
𝟑𝟔𝟎
##appro
reconc
illuminate
bigoplus
practitioners
inversely
busemann
knapsack
borcherds
𝐦𝟐
𝟑𝒊
𝟖𝒙
##aj
##¨uo
##𝑤𝑤
mathtt
##bertian
pap
##ymptotic
hyperfinite
expert
iterating
radiative
implementable
𝟏𝟎𝟎𝟎
inaccessible
isogenous
kelvin
atlas
braces
friday
suzuki
eavesdropping
parseval
2w
4p
lan
trib
trot
uu
wess
𝟖𝟒
in3
coc
strang
surjection
everyday
consolid
laun
centred
##ails
nowad
keying
projectiv
merit
painted
gpe
manipulating
e3t
depicted
hospital
hinges
verifiable
zhao
rapoport
aust
hv
hints
icos
jew
##cope
##×2
##𝐬𝐢𝐧
##𝐼𝐼
tou
conley
disser
lesser
meat
perch
##dep
##undy
normalised
−16
drin
##ooting
lottery
liftings
levine
enrichment
covid
daniel
laboratory
procesi
nowadays
kon
kem
tips
forg
shooting
##chon
coleman
##llc
texttt
306
hilb
covariances
lifes
propagators
440
submon
pilots
pullbacks
destroy
semimartingales
octonions
x→c
a12
bot
d8
fries
hmm
sant
sak
−π
##non
##itman
subcon
##apes
flights
formalisms
292
##𝒙𝒙𝟑𝟑
reachability
duff
𝑨𝑨𝑪𝑪
##−2x
preferable
vlc
cumulant
musical
caught
cataly
acceptance
reconsider
tossing
galilei
matsum
casson
indistinguishable
stamps
dau
sper
wes
##orious
##izhnik
underl
calif
follower
carn
specializes
semicontinuity
ceiling
evolved
ehren
multiparameter
entail
bounce
neuros
tremend
voiculescu
gras
lump
sgn
saves
∀x
√𝟓
##din
##bell
##ece
prox
stuff
subelliptic
arct
desmos
overlo
homologically
freezing
305
261
visibility
binning
templates
framing
##ushin
8wb8
pinched
insert
pedest
manifestly
wrapped
unavail
reconfigurable
5th
gps
zoo
##cule
##≅∠
##asim
chan
horse
297
degenerated
banded
##slag
attaching
dnns
##ipotential
practiced
𝐟𝐟𝐭𝐭
fortun
isomonodromic
jr
jxj
mow
tasep
ωt
−y
−20
##𝐑𝐑
sec2
schol
wells
##𝟐𝟐𝟏𝟏
ravi
lowering
rician
unbund
baer
returning
vacc
versatile
dispersionless
eisenbud
reserve
salesman
hdg
interleaved
zigzag
pronoun
gentle
koll
##mel
##𝑴𝑴
##𝑆𝑆
##umps
##utativity
bees
spots
compete
expenses
##posi
plato
laid
parameterizations
279
popc
permitted
horoc
sharpen
profession
550
exchanging
vacation
1972
huber
injections
brainstorm
william
seminorm
abundant
frieze
trotter
californ
ein
kest
peng
ziv
¯x1
σ1
−𝟎𝟎
∠𝑪
𝟐𝒂
##°f
prosp
maurer
manager
multip
equational
setsquare
##redic
orthogonally
antifer
encourages
gramm
survive
diseases
bgg
enclosing
##ambigu
unshaded
bhat
±1
µ2
−sin
##yon
##alid
##stock
undo
##yne
givental
verdi
geg
trivalent
scl
eigenforms
wavefunction
drifts
distinctive
hypergroup
transversely
𝟐𝟓𝟎
𝐜𝐦𝟑
destabil
baumslag
helicop
mcmullen
wavenumber
dolphin
dissertation
popcorn
fountain
rising
rudin
yon
𝟓𝟕
##𝑑𝑑
shaw
neyman
##sof
overwh
elli
ranked
eron
pebb
idealized
miscl
filament
𝟓𝟓𝟖𝟖
##athan
vii
heteros
7wb2
wondered
exemplified
unreliable
certificates
rkhs
bigraded
3p
dor
fitz
kub
ppp
pint
𝟑𝒚
##oning
inp
relator
##pto
unitaries
normalizer
303
307
336
343
berwald
corrects
thermost
steel
steeper
𝐥𝐨𝐠𝟐
rainfall
klt
carlos
genuinely
coarsening
cloaking
francisco
furnish
necklace
zumino
overwhel
5t
og
##aum
ofdma
##athe
##ayer
perfor
overcomes
regards
delivers
##expl
parallelizable
283
admitted
ramond
legal
1805
dmd
protractors
innovative
barycenter
remediation
3𝑦
eting
hans
wg
##enberger
toti
stall
##rain
disloc
notations
subnormal
incoherent
roads
biases
selfd
323
genome
𝟒𝟒𝟔𝟔
316
802
convince
##radical
##issner
##true
ambiguous
assembled
##pathy
axiomatization
contingency
cokernel
𝐚𝐚𝐚𝐚𝐚𝐚
jth
jean
lib
wak
𝑐2
𝟏𝟒𝟒
𝟕𝒙
##qm
##ampled
spine
paras
##phase
clients
##poul
prone
knock
knizhnik
##tax
samuel
confused
segreg
356
broadcasting
𝟏𝟏𝟏𝟏𝟏𝟏°
condensates
multistep
pixel
presheaf
##tracking
physi
farey
nekrasov
nikodym
etingof
ble
efficiencies
hof
kj
mri
qmc
##location
##𝑎𝑡𝑖𝑜𝑛
##econd
pros
anton
spt
parsim
##phone
##ffel
determinacy
##inct
cubics
quasigroups
hopkins
342
384
marginally
submatrices
buses
##burger
nonclassical
tackled
honest
##oriented
parametrised
sesquilinear
colombeau
cleb
hou
mab
𝑨𝑨𝑨𝑨𝑨
##ivariant
claus
nonloc
##pleteness
sep
pertin
##open
ops
##aken
phon
##ibles
bart
thirring
indication
346
kevin
lnj
petri
8wb10
impossibility
6wb1
teens
telepathy
kenig
##𝐞𝐧𝐭
rieffel
cancellative
heegner
pebbling
eating
hind
prand
qf
ﬂnd
𝐷𝐸
##stic
##gom
##house
##bp
##bel
modalities
meix
expressive
anyons
##annier
fuller
shortening
assessments
splitter
medi
breakfast
viro
equiangular
contracted
apartment
##glund
##𝐶𝐶𝐶𝐶
nondegeneracy
grigor
intensively
equicontinuous
pioneering
ducks
##64224
shortcut
professor
california
meixner
2−
4g
##amil
shake
sufficiency
presentable
definitely
preorder
eman
##ellular
extendable
necessit
labelling
−13
ern
tiled
succes
macros
319
317
##athers
multiplicatively
faltings
ecological
rearranged
sudden
umbral
sutured
epimorphism
reinterpret
eikonal
clebsch
gies
##ﬂy
##escu
resorting
grains
arf
regge
angel
correspondingly
slotted
##parov
302
subtree
posters
bfgs
equivariantly
broadband
##𝑩𝑩𝑩𝑩
younger
saturday
artifacts
pluri
undergoing
membranes
nucleus
reservoirs
coalition
horsesho
undergraduate
kesten
misclassi
prandtl
kend
𝑌𝑌
##𝒈𝒈
##𝐤𝐤
##¢¢
cocommutative
diacon
sinks
infl
rais
2172
rote
barotropic
visits
294
faber
nilradical
collatz
eck
erased
##center
kirk
𝒎∠𝑩
bonus
susceptibility
kasparov
##emporal
subcarriers
loosely
gegenb
bism
dough
##nets
##69
##×1
begun
##berian
underwater
multipole
flipped
discreteness
281
retarded
unbundle
430
airc
goldbach
suslin
amplif
borrowed
siso
attempting
a∩
nur
roc
¢¢¢
¹k
##light
##ixed
##reduc
resort
notorious
imbed
phill
##yme
probable
mayer
origins
quasiregular
argu
simplifications
swing
##𝑥𝑥3
brezis
a22
stopw
favorably
6wb3
coalescence
announce
hellinger
lifespan
gegenbauer
fist
fpt
uh
θ2
𝟕𝟔
##lein
##asaki
unidirectional
dislocation
perce
flor
carter
supermanifolds
syntax
380
concentrating
diverging
sdr
4x3
radioactive
neutro
atmosphere
nutrient
trellis
brieﬂy
lur
##polynomial
##nick
##bly
##asymptotic
##ife
unil
##ours
upwind
##𝟐𝟐𝟒𝟒
marri
washing
imprac
superim
edit
002
𝟕𝟕𝟖𝟖
duke
bicomplex
egg
kilometer
honeycomb
diaconis
3⁄
4u
a×
gonality
tand
w3
yt
zw
∠𝐶
##vd
##76
##arte
##ilt
##tini
disabilities
doa
allowable
allowance
𝟐𝟐𝝅𝝅
understands
revol
biot
lawns
alternately
hops
engaging
synap
𝟏𝟎𝟖
lynd
tracks
beliefs
versh
panels
manipulative
neuronal
nakagami
arnol
hawkes
sweeping
neutrosoph
5x2
fid
flying
hb
oder
peg
∠s
todd
##asive
stencil
beaker
##chev
monogenic
𝑥𝑥−1
indexes
substrate
scientist
transversally
shellable
insen
federal
lisa
quadruple
##worthy
microstructure
hoffman
succinct
h3
hz
wir
yor
𝑰𝑰
##cz
##arts
weber
##oline
##rific
multilay
##1510551015
marathon
parallelization
elusive
##102
liber
390
gallery
quadratures
earnings
##ifferentiable
##ijsen
urllc
genetics
inferential
malicious
roses
shuffling
bgk
elaborated
kinematical
enforcing
narasim
pige
teddy
aperture
dislocations
dut
lti
−c
𝐰𝐰
thrown
theater
stro
##cev
invoking
##rowski
odel
𝟎𝟎𝟏𝟏
fifty
𝑃𝑃𝑃𝑃
kaczm
clarifying
8wb6
##zyk
cipher
lasc
##𝐡𝐡𝐡𝐡
succeeds
##foil
3×3
kaczmarz
fiction
ions
lms
nesting
rick
viter
𝟎𝟒
##df
##ais
unpro
##thetic
nonres
acid
multigraphs
associations
indexing
pulling
immun
instruments
joyce
hydrostatic
asep
earthquake
lindblad
cech
e0
kv
oka
−i
𝟎𝟑
showcase
abrupt
##ago
multisymplectic
regularities
1100
revision
labelings
componentwise
redraw
373
650
##𝐭𝐭𝐭𝐭
shrinks
e−t
enforced
kostka
tarski
jeremy
butterfly
energetic
2𝑎
fbm
rail
##pace
##aire
##71
sham
spam
chung
reporting
##aga
discard
superd
supercompact
confound
𝑥𝑥−2
284
perturbing
𝟏𝟎𝒙
vacant
1969
8wb3
activated
octo
##nirel
fleming
adjoints
supercharacter
preimage
elliott
##amiliar
fso
gig
gift
kras
rips
𝒃𝒊
##jo
##joy
##a3
##gment
##−𝑏𝑏
##burn
##≥1
##rev
unexpl
minu
allig
lets
randers
definability
heating
squash
explicitely
decomposability
bratt
interven
−11
persists
protect
allocate
kumar
plasticity
##umbel
gossip
pocket
aer
cree
ew
gad
gumbel
hest
viz
xf
𝟒𝟔
##pted
##issible
modality
##ograd
seam
interpolated
markdown
pops
robb
layout
ensured
1965
multisets
mosa
goldman
tendency
settling
collaborators
satisﬁed
collectively
pictorially
unicyclic
seismic
london
zeilberger
enormous
narasimhan
bidirectional
f−1
fasc
kid
oe
xb
z∗
˜uj
shub
spider
imex
thereafter
##osa
optima
##𝟐𝟐𝟑𝟑
bius
attending
x2y
checker
polarizations
birationally
ulrich
virial
humans
plugging
##perturb
sierpi
downloaded
actuator
hyperkahler
##poulos
1x1
jc
xc
##°𝐅
inject
conormal
typed
idle
marble
backtracking
magnus
𝟏𝟏𝟏𝟏𝟒𝟒
mildly
weekly
anticomm
semistability
mlr2
subordinate
regulatory
montgom
incompatible
contiguous
bers
e6
hither
##n−1
##odies
devel
unambigu
champ
noon
dozen
##epr
##comput
geometri
imprim
opened
##iko
lawn
##ventional
bifurcating
gpu
loaded
pnc
nxi
surviv
##laurin
hyperbolas
longe
biochemical
aircraft
montgomery
mip
sorts
void
##58
##gre
##hear
reverses
##rous
papr
pras
##ologists
##oft
singly
centric
sheep
##kii
galax
skewness
investor
cascades
disappears
hunt
lehmer
pisot
diminishing
bikes
pseudorandom
neuroscience
fortunately
lyndon
##perturbative
fencing
junctions
passi
qx
sally
∠𝐵
𝐩𝐩
𝟔𝟖
##yen
##zig
##edon
##isch
##lements
staff
reissner
syner
prevalent
bloc
notebooks
352
293
swinner
maclaurin
004
𝑨𝑨𝑫𝑫
fused
rouquier
surprise
unimodality
torsor
commensur
annotations
amazing
bratteli
swinnerton
erm
j1
𝟓𝝅
𝟕𝟑
##uvw
##inating
beats
##iration
paving
expose
recyc
schen
noncommutativity
emden
remedy
quantizing
polyharmonic
weighed
hamm
baseband
abelianization
repetitive
347
morava
##rington
stringy
mastering
diﬀerential
susan
sectorial
intertwin
##rophys
commensurability
pushed
jimbo
contaminated
pedagogical
hitherto
dates
lights
mech
ssp
wy
𝐏𝐞𝐫
𝟒𝟕
##piped
##fare
##tch
##erre
tooth
##thes
seas
##herent
hyster
274
quasitriangular
centering
programme
𝟒𝟒𝟕𝟕
fauc
subcub
temporally
1967
pulled
psych
participating
mfg
bousfield
compromise
siblings
greek
##𝐴𝐵𝐶
nicolson
compartment
bomb
dually
ϕi
𝐬𝐞𝐜
##enh
##istribution
##imm
properness
functionsof
schl
optimizer
speciﬁed
accounted
eigenp
##𝟑𝟑𝟏𝟏
fourfold
##olli
encaps
362
##𝒙𝒙𝒚𝒚
mp5
a21
##rodynamic
himself
thurs
leaders
clutter
syndrom
dendriform
neutrosophic
october
hysteresis
2√
##ees
##u1
##sil
bee
workload
##anna
##ustern
folkl
signalling
322
##ylindric
##cedastic
0000
thirdly
owen
birch
joe
nullstellensatz
hats
epi
queuing
spacings
reinforces
##quadratic
superconvergence
ﬁtting
wrap
pieri
szabo
disadvantages
subquoti
##approxim
pertinent
folklore
bras
hass
hip
hik
nano
sits
ug
vois
x∗
γj
##nam
##ext
##𝐦𝐞
##𝑌𝑌
##umo
##rivial
##taine
complementing
calling
carous
309
tauberian
likes
phenomenological
##arsfeld
discoveries
thermodynamical
unfamiliar
watching
destinations
parenthesis
𝟒𝟓°
gonchar
contextuality
sliced
supplied
peanut
electromagnetism
voisin
6j
dpp
gessel
gagl
heck
hida
nas
wings
∫∫
𝒀𝒀
##2−
##odin
nonarch
##formed
transpor
decidability
trilinear
characterising
maruyama
aftern
##rett
393
540
actively
emphasizes
1968
mosc
ptole
𝒄𝒄𝟐𝟐
##iardo
tychon
pluric
forecasts
concordant
healthy
contradicts
tagged
pitman
excursions
administered
lazarsfeld
gtr
nuts
rhyth
uo
𝑂𝑃
𝒗𝒗
##cki
##−x
##entive
##ecant
anonym
##urities
phones
homologous
lined
blu
rook
units2
pathological
skin
discretizing
##arsh
tanh
1801
adjustments
ruijsen
polymorph
deletions
##factor
pollution
nuclei
bicategories
cloak
ancestral
phaseless
erroneous
faucet
ruijsena
5⁄
7𝑥
bright
brick
hung
pens
wag
##lb
##fels
##hh
##¹ko
##𝒍𝒍
##titious
##stad
resum
dish
nonperturbative
appeal
##opic
deser
ge3
##type
contag
preview
quantizers
hilbertian
uncont
scatterplot
flatten
banana
researcher
irrot
−𝟏𝟐
𝑃𝑃𝑄𝑄
8wb1
8wb7
e−x
hnq
violate
exemplify
manufacturing
oversampling
bibli
heyting
reweighted
pronounced
phillips
tychonoff
ruijsenaars
3f
ngu
oll
ojasiewicz
wig
##mo
##aracter
##odi
##ota
##chard
##aches
##ande
functionally
overflow
operadic
apol
anyway
symmetrically
choi
neck
cohomogeneity
##ruary
joh
stackelberg
cusped
comprehend
bringing
latitude
encompassing
prolifer
proteins
subinterval
bertrand
fujita
february
polytopal
unavailable
raviart
raisins
bismut
irrotational
4e
gons
kov
oort
√𝑥
##kj
##bled
##strom
pov
paralle
chrom
##uses
underpin
linearizable
wellposed
origam
−14
barc
retail
sticker
ivanov
terminate
multicasting
cambridge
ladyb
azim
wolff
fontaine
umbilical
robotics
grapes
##lotuvw
peripher
gagliardo
hnqlotuvw
hnqlotuvwzn
4i
6t
frog
lz
russ
𝑺𝑨
##mi
##metries
##r1
##lepiped
stbc
unoriented
indisp
december
276
director
interacts
gaining
378
propagates
blueberries
tanks
cotton
wednes
##strauss
coalescing
coexist
indeterminates
polycyclic
josh
kay
kitch
ling
mises
pond
qoik
##lp
##k2
##utivity
##inite
##asp
forty
##quer
equising
cheng
relied
graphon
omitting
originates
edwards
precompact
alongside
dxdy
varad
𝟔𝟔𝟕𝟕
c2x
cooperate
2y2
stresses
forgetful
tannakian
synthesize
crowd
kunz
cofinality
lindenstrauss
yoneda
520
gov
jason
mike
−𝒙𝒙
ﬁx
𝟓𝟗
##fting
##1x
inelastic
##ingar
##uma
graining
subrings
schul
preprocessing
##objective
exponentiation
quasin
popa
percol
deﬁnes
subdiff
##𝒚𝒚𝟐𝟐
##ews
mobius
##orohod
xmd0
blowups
affinely
transceivers
polydisc
rozansky
tremendous
arctan
##usternik
carousel
afternoon
bricks
kow
kick
k−1
pow
βi
∇f
𝑢𝑢
𝒙𝟒
##aver
##aru
##iture
spi
newforms
smol
ellis
guille
behavioral
skorohod
##ﬁned
291
farm
boris
𝟏𝟎𝟓
viability
distinguishable
##aaa
##𝐖𝐖𝐖𝐖𝐖𝐖𝐖𝐖
russian
𝐚𝐫𝐠
matsumoto
stopwatch
dave
lau
nmf
ron
𝐨𝐨
𝑨𝑫
##antin
wein
##ache
absc
##apor
surplus
amoeb
slider
parameterizing
cos2x
muse
##onicity
328
##avin
mission
makers
348
##123
retraction
pml
atomistic
−𝟏𝟏𝟑𝟑
tune
mosqu
inferring
𝟐𝒙𝟐
tamari
𝒎∠𝑪
mileage
hypercubes
degrade
violating
ucker
bryant
dictated
isaacs
recombination
unilateral
multilayer
azimuth
0≤
dini
garch
kane
##61
##gage
##𝑔𝑔
##igraph
shu
composites
clap
##plicity
##ardo
transference
locking
boxed
concert
repetitions
dilaton
##brun
diagonalized
𝟖𝟖𝟓𝟓
srb
oscul
hnn
welfare
misspecification
scratch
lichner
impractical
4⁄
bia
bivariant
cpt
dup
fang
holl
houses
irm
rim
œ0
−𝒙
##dles
##korn
##yan
##𝐜𝐞𝐧𝐭
##𝑀𝑀
##arner
##state
##ensable
scram
multiplets
stochasticity
quasigroup
practices
mp8
##boards
fulton
anna
423
duf
snrs
doctor
##flies
contrasting
kawamata
inhomogeneity
uniruled
arakelov
lichnerowicz
6d
gv
kalu
𝐻𝐻
##nd0
##ige
cops
incurs
simulator
demod
orthant
spatiot
astrophys
engineers
##iﬁes
sturmfels
enjoying
gathering
##𝐫𝐫𝐫𝐫
invisible
underdetermined
rabinowitz
𝟏𝟏𝟏𝟏𝟏𝟏𝟏𝟏
pretzel
gieseker
kendall
nonarchimedean
aro
dies
gle
hose
lbrace
##pke
##pill
##rw
##ala
##uli
##iled
cog
##ype
##ipschitz
exten
##pta
##ovski
posing
##lonian
##𝟒𝟒𝟒
331
memories
357
borodin
forwarding
drone
substance
constructively
mask
colony
strawberry
raref
borderline
rectilinear
enclose
rods
##orientable
vegetables
##llllllllllllllllllllllllllllllll
athletics
##iegler
jelly
ladybug
wednesday
jh
kak
yl
ziegler
##sbaum
##tized
inad
##anth
isoch
chatter
subchannel
acted
extendi
doob
schnirel
soer
planets
impurity
weakness
crt
intervention
predetermined
predicates
solitar
explanatory
margins
asth
schedules
bisects
familiarity
spacec
inﬁnites
straightforwardly
entered
organizational
lrcs
tdd
deadline
cherry
biquand
3gpp
abbreviated
hyperkaehler
snapshot
subadditivity
convincing
fischer
fictitious
blockage
4j
kemp
mub
nol
xor
∂f
##oka
##51
##×𝟏𝟏𝟏𝟏
##veu
conifold
##eland
##romino
acylindric
esseen
measurability
charles
helly
polyst
bigcap
##𝒙𝒙−𝟏𝟏
456
recoverable
fifteen
##𝐷𝐷𝐷
salem
𝟏𝟏𝟒𝟒𝟒𝟒
silently
printer
execute
federated
unresolved
volunteer
dessins
unobserved
caterpill
elephant
pinsker
overwhelming
hurewicz
loud
β3
𝑚𝑥
𝟑𝝅
##iant
##tas
thread
confer
coaction
pager
subn
acm
functionality
##agawa
polyn
obtainable
charlie
##𝟏𝟏−
parametrix
factory
closedness
backb
##inkiewicz
principled
##ruption
valent
dilates
vars
𝟏𝟏𝟐𝟐𝟓𝟓
y01
promoting
460
routines
560
progresses
salam
absorbed
factorials
##effective
tj−1
frankl
unpredic
octagon
buchsbaum
tanner
buttons
vibrations
inhomogeneities
superflu
weibull
arguably
peripheral
##ingarten
j2
𝑎𝑥
𝟕𝟏
##math
##wall
albert
commod
newsp
##oku
##𝟑𝟑𝟒𝟒
subtrees
regional
filiform
358
hadw
5000
dae
gravitation
kalai
mixes
insertions
audio
philosophical
##𝑇𝑇𝑇𝑇𝑇𝑇𝑇𝑇
subsemigroup
kramers
bingo
appreci
indispensable
kraw
kitaev
##𝒐𝒏
##arking
weingarten
##ample
##emi
compos
neveu
learner
##ketization
percept
multigraded
slater
homotopies
lyons
berg
incompleteness
a2x2
envision
stew
##𝑫𝑫𝑫
petvi
semicircular
holomorphy
censoring
kadison
ferrers
fertilizer
mamm
prasad
𝐏𝐞𝐫𝐜𝐞𝐧𝐭
kaluza
soergel
hadwiger
3π
4r
bcd
fts
lj
lda
oy
r−1
rco
sop
##−n
##acting
chet
inviting
uparrow
serrin
aligning
taka
##itzer
paraboloid
degenerating
##ographically
mdps
𝟏𝟏𝟓𝟓𝟓𝟓
taxes
psk
collapsed
𝟒𝟒𝟒𝟒𝟒𝟒
bilipschitz
##𝑹𝑹𝑹𝑹
##radius
tdma
kripke
preimages
insulators
garcia
##patrick
rauzy
underlies
710
era
jt
malle
rbrace
vd
yb
𝑥1
##qp
##losed
##fit
##39
##−𝑦𝑦
todor
atkin
cohn
##ials
leap
##oping
wrt
carton
quasif
cris
playground
##abolic
coproducts
mp1
breather
x0j
thermometer
quicker
versal
1963
wedges
cfl
shadows
annihilating
karush
kirchberg
satellites
##𝐏𝐏𝐏𝐏𝐏𝐏𝐏𝐏
naray
izumi
snapshots
flavors
loday
carnival
ptolemy
museum
craw
kd
xg
##olec
##𝐚𝐥
##tification
##erden
##ouk
reiter
uni
atyp
##andard
##endor
maneu
limn
timeste
bihol
harness
valence
##𝟔𝟔𝟔𝟔
walkers
additively
dt2
##vectors
rdf
##shov
gao
finslerian
kuper
eiθ
lmi
nagumo
marchenko
dialogue
hyperedges
warning
longevity
intertwiners
mosquito
kott
worm
√𝟐𝟐𝟐𝟐
##e1
##×𝟐𝟐
##quard
subanalytic
intend
invalid
##agh
notices
integrations
##enson
equivocation
localizing
raph
dirty
homotopically
318
nahm
𝟕𝟕𝟒𝟒
profound
413
clarification
waring
##enbl
𝟐𝟐𝒙𝒙𝟐𝟐
babys
leslie
frogs
sudakov
coefﬁcient
contingent
ufd
##oelectric
sperner
fascinating
pagerank
415
810
fog
mig
pam
rz
tong
βk
##pass
##cod
##tles
##𝒕𝒊
##enet
inexp
stu
##siveness
reid
##endar
##𝟏𝟏𝟖𝟖
respecting
localize
certainty
semimod
##haust
parameterize
grundy
communicated
##ﬁnite
364
naz
microw
epstein
bicm
conductances
##omponent
bacterial
adequately
platforms
indirectly
kingman
sidon
symplectomorphisms
email
goncharov
nguyen
guillemin
##𝒕𝒊𝒐𝒏
8n
brow
bries
eo
qb
wan
##a0
##𝐽𝐽
stamp
pointer
plenty
gear
apex
incentive
patty
unco
tilt
faulty
341
positioned
416
495
yorke
voice
mlr7
semilattices
1970s
nilpotence
drinks
tandem
spatiotemporal
spacecraft
bend
lk
werner
##neq
##lar
##aign
##0t
##hand
##arrier
##elmann
tops
loz
blur
flowing
304
308
yielded
359
377
pmatrix
quartiles
benford
interfac
6664
pasta
videos
svrg
##keya
executed
interferers
hearts
##bersome
jerry
suﬃciently
sacrific
##ultiplication
antimagic
imprecise
##ogradov
schensted
brieskorn
1𝑥𝑥
crac
lw
ness
tat
##z0
##rovin
by0
##phy
desks
transduc
linearizations
smar
optimizers
productive
subsurface
numerics
monomorphism
##sonic
rigged
##titudes
caf
𝟔𝟔𝟎𝟎
sensitivities
szego
cumbersome
watan
pooling
yardstic
shearlet
pseudocompact
allocating
steepness
obliv
permittivity
vinogradov
acknowled
osserman
inexpensive
1j
1r
eri
pans
vow
##pande
##vative
##oras
##eding
toll
##strophy
sufﬁ
unt
##allic
##adj
curtis
pla
doors
limt
supermanifold
##aussian
quasist
fundament
communicates
##ldy
magnet
scatterer
cutouts
phenotyp
389
mimick
enumerator
quaternary
stratifications
traceless
svms
rubin
neighbourhoods
dubrovin
##hyperbolic
umbilic
nonlocality
succession
parallelepiped
russell
watanabe
011
4ac
feng
gith
jap
o©
tach
zonal
λu
𝑎𝑛
𝟎𝟔
##dz
##wein
exhaust
##igt
chores
underlay
vergn
equivari
regularizations
lazy
##ategories
slack
leq1
𝒙𝒙𝟏𝟏
kakeya
425
𝟖𝟖𝟑𝟑
435
unlicen
recalled
imperf
portfolios
autoequ
conﬁrm
pepper
unirational
syntactic
forgot
github
bors
gordan
iib
mere
pqr
ritz
zas
𝑴𝑴
##hor
##𝑩𝑪
##represent
fore
##olored
##ceq
beach
##term
##achs
linearised
willie
prev
sinc
brink
fundra
329
##lett
senses
breu
feedforward
##trial
winnings
fishing
waerden
heuristically
𝑷𝑷𝑷𝑷
2a2
echo
msr
encounters
kuranishi
reﬂex
sevenths
commensurable
signiﬁcant
unlicensed
a∗
danger
nits
##itivity
##×𝟏𝟏
##−√
##𝐨𝐭
##orie
##itably
toys
##asters
##restrial
equating
##ruck
enz
willing
contacts
sequent
##𝟐𝟐𝟓𝟓
fees
networking
eddy
sparsi
##𝒙𝒙−𝟐𝟐
swaps
455
surprised
magma
kreimer
tossed
marcinkiewicz
bipolar
advertising
necklaces
backpack
undesirable
cofibrant
petviashvili
gch
jy
jd1
tsi
vg
wentz
𝟔𝟎𝟎
##yrev
##∙𝟑𝟑
##ste
league
##plicial
##cales
dijk
poli
hein
endofunc
screw
factorizable
raz
miura
𝑥𝑥𝑦𝑦
galkin
##dley
fiberwise
blown
disjointness
parametrizes
525
##airable
clarity
hoeff
infinitesimals
thomason
terrestrial
yukawa
wrapping
superconductivity
duplication
skyrme
washington
insensitive
kitchen
rarefaction
hers
ment
sous
vie
vein
yr
𝟎𝟖
##eling
stric
##idulin
spray
coideal
recourse
optimistic
1930
##antization
branges
crit
confident
genie
equilib
355
dilating
swapping
breaker
scheduler
caches
monodromies
voigt
stretches
nagata
surrounded
campaign
gabidulin
multistage
euclidian
jsj
competitors
grasp
wellposedness
oblivious
hoeffding
kitt
△𝑨𝑨𝑨𝑨
##↵er
##isen
##oms
##pert
##ady
##angles
curie
repairable
##ianalytic
##𝟏𝟏°
goe
1814
##increasing
sensible
cran
pseudop
brad
milp
borwein
archimed
triplets
kinks
cohes
publicly
##blatt
tackling
fedosov
ambiguities
dunford
hartogs
rogue
auction
cousin
borsuk
a∪
hune
tver
xex
𝐭𝐭
##nan
##𝑊𝑊
##omput
islands
##uce
##plo
resistive
dispar
multiobjective
##tycki
dx2
blocked
##arrowright
##otto
enumerators
substructures
530
government
ribbons
octa
##mmse
decouple
##𝑮𝑮𝑮𝑮
classmate
sublattices
commitment
##hardt
hypercontrac
potatoes
totient
microwave
huneke
bess
dart
daugh
eﬃci
mant
siv
wong
x−2
𝒂𝒏
𝟐𝒕
##night
##u2
##gf
##wski
##ﬁt
##𝐧𝐧
proxy
matth
unw
##ussen
nonorientable
sevent
monit
dels
technological
standpoint
𝟐𝟐𝒂𝒂
freud
grh
kahn
385
assert
carriers
salad
pools
epidemics
warping
rosenberg
shrinkers
octonionic
pushing
shapley
pixels
scoop
scoops
magazine
imbalance
unexplored
bem
deng
eich
k∈
rcd
ϕ1
##nic
##×3
forc
subway
di↵er
##encod
prel
##ovitch
endogenous
infinitary
inflow
##ailly
aging
##ireg
𝟏𝟏𝟏𝟏𝟓𝟓
pseudoholomorphic
##isimple
##𝐭𝐭𝐭
1966
7775
fibrant
tamely
tedious
colimit
waldhausen
interrelations
noncoherent
matricial
asthma
jp
jost
zeno
##col
##ctions
##atus
##omatic
asd
suﬃ
##unic
undetermined
haj
multive
corank
edm
weaken
060
torque
skate
405
medial
003
𝟕𝟕𝟔𝟔
restart
567
reformulations
adopts
palm
subfields
𝐥𝐥𝐥𝐥𝐥𝐥𝟐𝟐
frenet
regenerative
regrouping
dissimilarity
interventions
tverberg
bare
bah
fec
gns
lbs
ohm
¯v
ωx
##lane
##fman
##t2
spd
chief
##chenko
##ormality
geographical
subsampling
categorified
blo
agnos
hollow
uncou
mpg
376
annuity
yangians
𝐜𝐜𝐜𝐜𝟑𝟑
qualification
interpolants
multicomponent
multicarrier
tetromino
fxx
replicator
strategize
𝐭𝐭𝐭𝐭𝐭𝐭
spontaneously
kadom
wearing
chirality
sunflower
passivity
f4
nis
racks
##pm
##rp
##tens
##alan
stol
##imi
mate
##geting
chu
##thed
clues
constacyclic
grew
##thern
emily
speculate
limiter
traits
trades
lampl
##servative
cosymplectic
327
formalization
##oyd
354
sumset
𝟔𝟔𝒙𝒙
##rystal
steer
dissipativity
522
influential
2sin
𝑐𝑐2
mlr1
annihilated
journey
##loaded
murphy
gdof
misspecified
registered
##haripande
dodec
##teenths
epistemic
bhatt
smoluch
backbone
8y
dθ
jess
punch
scul
wm
wenz
zu
##cave
##jee
##asi
##urve
##eners
regularize
lojasiewicz
traps
##2015
primiti
miy
intersected
trefoil
nullspace
visualizing
##lination
fractures
ﬁnish
##iscover
instantaneously
frontier
yamada
calderon
autoencod
violations
overdamped
judicious
declare
pandharipande
sublevel
reparametrization
origami
delsarte
6x2
fos
qps
κ2
−f
𝑏𝑥
##db
##acity
##osure
subscript
slit
weakest
quadratics
selfish
temp
339
drill
projectivity
𝟎𝟎𝟓𝟓
reder
liked
broke
resolvable
hooke
deploying
batyrev
##follow
delivering
otfs
sodium
descendant
sublattice
rephrase
launched
professional
seamless
syndrome
cact
gould
lace
lqr
pine
wpt
βtrue
γ1
𝟖𝟑
##opp
##aired
##sations
##sson
##vist
##lem
by2
##geometry
##icharacter
enstrophy
desire
collud
endemic
county
illum
bihom
capacit
homeo
goods
morley
640
residuated
120°
tomographic
𝐬𝐢𝐧𝟐
kirwan
reserved
##𝐩𝐩𝐩𝐩
##𝐐𝐐𝐐𝐐𝐐𝐐𝐐𝐐
sbp
progressively
dwell
kamp
lends
oval
##xon
##nr
##⋅2
##𝒁𝒁
##rojective
stere
##iler
shading
##atipp
nonincreasing
twins
##keting
entit
acous
managed
overset
evidences
evatipp
preval
##ovici
flocking
rightmost
##olem
tray
deflation
volumetric
adjunctions
skolem
misle
runners
452
grounds
ft3
reformulating
1962
minuscule
semistandard
michel
supersolutions
verbally
tough
smoluchowski
primitives
ihara
k−
y−
−z
𝑯𝑯
##kf
##rame
##zj
##𝑞𝑞
##amy
haglund
##agu
desarg
tripar
associahedron
info
delone
1510551015
##rossed
initialized
textbooks
biologically
326
robber
connectives
𝟓𝟓𝟕𝟕
298
farrell
344
371
feeder
𝟏𝟎𝟏
429
hierarchically
mcg
##−2t
burger
busy
adoption
8wb4
unsure
survives
rosenthal
hyperboloid
platonic
isogenies
bakery
mtc
polylogarithmic
nitsche
illumination
6mf
hline
kang
kites
pist
vw
voted
yy
𝐡𝐡
𝟗𝟑
##do
##zko
##omodular
##otarev
univ
##octahed
finiti
assists
recre
gregor
1820
boundedly
##ankar
harm
##rusive
403
406
353
faults
snakes
polarity
regressions
428
perpet
432
interprets
springs
𝒂𝒂𝟏𝟏
𝑏𝑏𝑖𝑖
umd
rubinstein
paradigms
##which
magnetohydrodynamic
subsemigroups
chicken
prohibitively
limx→
catastroph
antiferromagnetic
robbins
lamplighter
9𝑥
dos
nights
pere
zm
−𝑥
##mill
##𝑾𝑾
##onious
inﬂ
##imov
##ticles
byz
##tein
nonasymptotic
ital
metallic
enrolled
1010
invasive
##take
##undles
goog
compacta
instanti
instants
defend
curvearrowright
##archenko
##𝐬𝐬𝐬
snack
379
torsions
geophysical
steadily
conversations
cliff
unconventional
resembling
woods
bosonization
unexpectedly
deposits
sleeping
planetary
piez
rendering
contestant
aubry
derangements
herzog
hyperparameters
rhythm
fundraiser
kadomtsev
7→
bbr
j∈
qud
tons
𝐼𝐼
𝑳𝑨
##l2
##kat
##jug
##e2x
inhibit
##arc
rehear
suite
nonb
nehari
finetti
formats
abilities
incenti
frac32
##ismooth
realisations
glu
lawrence
brownies
roughness
bisec
wheeler
luo
egf
ay00
tameness
##𝜋𝜋2
laminar
mortality
boyd
crocod
actuators
epimorphisms
locked
𝐴𝐴𝐴𝐴𝐴𝐴
emanating
spiking
1h
aec
dst
dust
hiv
hanging
¼m
𝐏𝐏𝐏𝐏𝐏𝐏𝐏𝐏𝐏
𝐬𝐬𝐬𝐬
𝟔𝟏
##nev
##oad
##1−
##120
##´e
##etary
whence
##urt
spill
10000
grey
anyon
noncommuting
norming
equivalents
##intu
algebraicity
denjoy
ii4
constrains
335
interpretability
hypoc
351
𝟎𝟎𝟏
mp4
teller
oscillate
indivis
experimentation
𝒂𝒂𝒏𝒏
bake
hooft
pastur
##orderequations
koz
salient
equidimensional
pinned
gardner
premium
kawasaki
conflicting
speciﬁcally
perceived
synaptic
heston
gtrsim
wagner
prevalence
cps
darn
¯p
𝟒𝒊
##dom
##rj
forwards
##idis
##selection
##otone
##ird
##tiness
greene
stru
flop
highway
associahedra
blum
demailly
questioning
neglec
orthos
harvey
taste
2n−1
bergh
clearing
viot
suprema
selector
mlmc
enumerable
deepen
490
substack
gasoline
𝟐𝟐𝟐𝟐𝟑𝟑
sdps
microgrid
pacing
friedlander
titchm
assemble
𝐟𝐟𝐟𝐟𝟐𝟐
enhancements
puppy
speech
leonard
graceful
motifs
nonisomorphic
parsimonious
suﬃces
entitled
jup
jane
sbss
α0
𝑫𝑫𝑫𝑫
##no
##°c
##u0
##wn
##eny
proton
subjective
interdep
##elyi
schout
definitive
superrig
hamburger
constraining
advanc
cmv
504
gale
filipp
moran
deductive
myopic
risky
mastered
475
neq0
mason
##weight
##𝒂𝒂𝟐𝟐
apparatus
excludes
nlos
tqfts
metastability
intermittency
lenstra
pseudospectral
unmixed
isotonic
solenoid
credible
mcduff
disagreement
verdier
kubo
superimposed
osculating
schnirelmann
fundamentals
agnostic
titchmarsh
6a
910
bush
hx
jin
mitch
native
𝑥𝑛
𝟎𝟗
##linski
##aid
thales
inj
inﬁ
##acz
alf
popov
##ighth
formations
##ynard
##illance
nov
extras
schel
contention
pream
scalene
##eroid
regularizers
leftover
eigenform
viewer
cardboard
cavities
facial
explosive
employees
mimics
inspiration
arranging
lifetimes
higson
bubbling
equipments
targeting
sandwiches
photoacoustic
multimodal
subbundle
rephras
semiconduc
wavefront
perforated
octave
prelimin
bisectional
1y
award
yano
##figure
##geless
##requ
stones
shipping
spending
##unt
subword
invoke
abnormal
omn
invested
superpolynomial
starters
𝟐𝟐𝒚𝒚
preclud
##variants
films
hergl
achievement
398
𝟏𝟏𝟐𝟐𝟑𝟑
doubt
448
socp
7wb8
supercongru
##degree
drove
retrieved
fulfills
administration
1980s
##−−−−→
hunter
toolkit
paracont
symplectomorphism
trimmed
subadditive
chorally
lecl
austral
grigorchuk
herglotz
bac
ids
ici
kit
lolli
ppt
rights
ssc
sark
tes
tort
##kk
##gets
ree
##irani
nont
enf
veriﬁed
anymore
teas
converter
subsonic
semester
modulations
primality
##oughter
crc
332
valency
justin
diffeological
successor
besic
𝑏𝑏𝑥𝑥
##𝝅𝝅𝟏𝟏𝟐𝟐
gaud
neutron
rubber
campbell
𝐴𝐵𝐶𝐷
lovasz
bounces
vibration
disjunctive
heteroscedastic
notoriously
alligator
bluepr
varadhan
kottwitz
1m
718
lion
vague
˛0
𝟗𝟖
##59
##born
##antic
##isive
##ifman
chur
rellich
##ardar
knud
soib
maximizers
carathe
gamb
refraction
##𝟓𝟓𝟐𝟐
338
debate
##ixing
fillable
𝐴𝐴𝐷𝐷
majorant
dga
voa
##itoric
##345
tessell
chocolates
degrades
scarf
delocalized
frustration
inevitable
pigeon
mosaic
tripartite
soibelman
4𝑦
cif
hinder
mst
p5
sidel
zj
𝐖𝐡
##men
##je
##js
##×0
##hashi
##ﬁers
##𝐻𝐻
##𝑜𝑡
##ares
comultiplication
beef
orlov
poi
adler
arma
##uchon
acta
multiphase
corps
##pture
##ficient
themes
glas
needle
reminder
subgaussian
confusing
affili
gron
odot
kapl
viewpoints
pseudoman
cyclicity
𝟔𝟔𝟗𝟗
006
387
surveillance
𝑎𝑎𝑛𝑛
truncating
incorporation
exchangeability
peakon
higman
clever
uncovered
ponce
hammack
k∈k
cactus
5k
612
dal
lel
𝐨𝐟
##mes
##rat
##toc
##−𝟑
##z1
##𝑠𝑠
##align
toppings
weg
resting
overtwisted
incidences
##oldt
homes
unitar
samelson
pathway
interview
𝑥𝑥−3
3404
##𝑥𝑥𝑦𝑦
greenberg
##prints
probabilistically
𝑎𝑎𝑏𝑏
c1x
recipes
−𝟏𝟔
kleene
𝟏𝟏𝟑𝟑𝟑𝟑
pdm
reiner
purchases
purchasing
##𝟎𝟎𝟎𝟎𝟎𝟎
anchored
isolating
ρ3−→
granular
deficient
ozsvath
triggering
vulnerable
prerequisite
vershik
##tchouk
thursday
uncoupled
knudsen
lak
m−1
x7
−𝐬𝐢𝐧
∞x
𝟔𝟗
##tec
##amma
##ucci
shilov
##ainting
deplo
clones
##usch
trichotomy
arcc
##poon
assure
##atics
trill
optimizations
hele
normals
depths
monol
superpositions
mikh
cru
crisp
##avet
𝟓𝟓𝟗𝟗
369
368
permuto
##104
goodwill
laying
concluding
419
prescribing
470
informations
girs
##𝑩𝑩𝑩
holonomies
streamlines
german
𝑂𝑂𝑂𝑂
anticipation
interconnections
hedge
reﬂections
𝑨𝑩𝑪𝑫
hrush
supergroups
isotrivial
louis
subsumes
checkerboard
bombieri
caratheodory
deployments
0i
015
2cos
n×n
poro
woman
y4
yτ
£r
∗∗
##camp
##azzi
##¨u
##𝑰𝑰
##𝐰𝐰
##ecks
##elines
strom
stbcs
explic
quark
cannon
enroll
relatives
discord
moreau
linearizing
associator
sca
metrically
supersonic
evening
bren
muff
##rmoi
##value
bug
midnight
permuted
irreducibles
404
opponent
##𝟗𝟗𝟗
399
justifications
merle
oldest
bicon
neutrin
replicated
##𝐦𝐦𝐦
fulfilling
extinct
mismatched
scaffolded
quadrangulations
solenoidal
diagnostic
octahedral
atypical
eichler
desargues
𝐏𝐏𝐏𝐏𝐏𝐏𝐏𝐏𝐏𝐏
9y
gms
kb
mend
nap
nip
vinc
wc
wul
yarn
##wi
##witt
##ˆˆ
##˛˛
unphysical
##ogh
##andon
graphons
##poin
multitude
provision
regulated
schae
fej
accre
boston
times2
factorize
guides
##textual
−18
predomin
pseudometric
filaments
strains
maclane
retracts
427
bennet
recognizable
histories
𝒃𝒃𝒊𝒊
gibb
adjustable
hochster
unsatis
durations
drazin
freshness
tokens
aﬀ
eaten
ica
mud
nmid
ufer
𝟔𝟎°
##fields
##iu
##1000
thrust
##enues
intimate
sta
coactions
funct
nonumber
hajn
##area
##ractional
curf
newform
firms
##xton
manifests
carro
senior
brute
walds
misses
434
transferring
cnn
streamlined
dieud
leveraged
acquires
##block
pushforward
melnikov
snowfl
paradoxes
rosenblatt
bruno
dubbed
dinosa
seminar
slanted
waveguides
disjunction
vogan
supercharges
delocalization
zonotop
lascoux
lingu
commodity
interfacial
wentzell
kittens
daughter
wenzl
church
hajnal
513
bisim
cec
cx2
ect
fres
hus
rss
sri
𝟗𝒙
##cents
##fitting
##sk
##iton
##owsky
coco
undert
underne
howard
##omorphy
travers
needing
democ
weighing
𝟑𝟑𝒚𝒚
𝟑𝟑𝟐𝟐𝟐𝟐
𝒙𝒙𝟒𝟒
attended
##axial
rediscover
gauging
##alev
annals
395
397
quartics
𝟗𝟗𝟎𝟎
472
goldfish
##strong
safely
bijectively
fy1
historically
whisker
superconducting
##e−x
𝐦𝐦𝐦𝐦
mimicking
hrushovski
underneath
apo
dating
kardar
oio
ration
tad
½a
θ0
##du
##𝐭𝐚𝐧
proactive
whittle
exits
##oda
unreal
chun
##ustin
traction
haken
1024
schm
infeld
accident
cubed
polyadic
reasoned
gennes
testable
galex
essay
𝟏𝟏𝟏𝟏𝟎𝟎
372
versatility
zheng
##¯¯¯¯
huy
seemed
##𝒃𝒃𝟐𝟐
030
masur
neighbouring
agreed
tamra
mitigating
pivoting
elevator
pitcher
arbores
silverman
polymatroid
overlooked
misleading
besicovitch
girsanov
banner
cave
cients
d4
gop
√𝟏𝟏
𝑩𝑫
𝟖𝟗
##qs
##xp
##matrix
stab
ont
als
alan
##rays
parah
chab
mail
##occhi
meal
arens
##opf
##ags
operated
locates
##comings
emma
posses
monomer
sampl
##ressed
shortcomings
##105
readings
moraw
xn−1
𝟗𝟗𝟑𝟑
##anoi
semisimplicity
complications
3000
urns
malcev
inserting
depict
𝐦𝐦𝐦𝐦𝐦𝐦
lurie
krawtchouk
leclerc
b−
krich
mating
prag
ˆzk
𝐒𝐒
𝑩𝑩𝑩𝑩
𝒂𝟏
𝟎𝟕
𝟕𝟒
𝟗𝟕
##qo
##ln
##lt
##bt
thm
##inde
##nder
##elo
qualities
groupe
##iev
##istr
knight
1200
##iai
quadro
constantly
subsetneq
superpower
polyak
refractive
almgren
herb
annually
deterministically
stabilizability
dono
ecology
burs
compressing
##𝑩𝑩𝑨𝑨
alem
paste
kirby
𝐟𝐭𝟑
teleport
kenya
##physics
antiderivatives
caffe
fbsdes
memorize
goodwillie
morawetz
6𝑥𝑥
mang
varchenko
##lan
##e2
##3t
##hov
thh
weitz
conquer
##sio
anova
##umar
matt
chances
twenti
tea
soap
wash
superselection
𝟐𝟐𝟓
cospectral
𝟑𝟑𝟏𝟏𝟐𝟐
##iltonian
pseudog
ccr
algae
facilities
collide
floors
−𝟏𝟏𝟒𝟒
epis
scientiﬁc
fixation
speaker
𝐜𝐨𝐬𝟐
ruz
inferior
𝑛𝑛th
fxy
faithfulness
zeh
ellipsoidal
iga
phrased
bottlenecks
hetnets
octonion
underset
reinterpre
unveil
brascamp
smarand
sivash
kaplansky
712
gem
hut
lusternik
qd
stit
saint
tire
ξj
𝟒𝒚
##ien
##rant
##reb
##sizes
##amura
##uta
##iven
deem
deift
mint
##caling
abram
smc
asymp
planter
waste
exponenti
blob
noteworthy
universes
unknotted
409
genocchi
divisions
blockchain
awk
varpi
439
challenged
cotype
cyclical
##strand
##𝐵𝐵𝐶𝐶
##arajan
supermulti
discipline
diagnosis
sternberg
morrison
ultrasound
presumably
inpainting
apollonian
breuil
reﬂexive
filippov
caffeine
smarandache
840
aas
bidiagonal
ips
kud
ock
yog
zc
√𝟒
##kets
##𝒆𝒆
##rol
orlik
compressibility
clone
meg
##agues
topolog
semit
##ublic
establishment
encycl
strauss
##ashberg
008
##𝟕𝟕𝟐𝟐
educational
388
referenced
555
##hammer
footprint
cfts
gapless
puncturing
7wb1
palais
fdd
##ˇˇˇˇˇˇ
##𝑎𝑎2
aztec
responding
unprec
descendants
lubin
adjoining
paracompact
nordstr
##oooooooo
genealogy
eliashberg
regressors
selfdual
arnoldi
1k
bcc
bauer
mss
riding
u⊥
𝟖𝟔
##lip
##gas
##bour
##zo
##esin
mathem
mink
lean
adhes
manual
abe
wherever
##osc
trips
##ovariant
slants
backlund
elig
408
𝟒𝟒𝟏𝟏𝟏𝟏
0003
planarity
𝟕𝟕𝒙𝒙
sparsely
##−𝟐𝟐𝒙𝒙
cooperatively
sheeted
erasers
cornerstone
1957
soundness
lucy
resembl
semifinite
reminds
hinge
advertise
semiprime
##𝐨𝐥𝐮
viterbi
heckman
kuperberg
cracks
ace
cres
rine
utz
wired
π4
##vous
inseparable
##roff
token
##id1
##iden
chv
interd
arons
10s
indian
decodes
computably
thank
heath
15x
centres
distributivity
equalizer
originate
wouldn
averse
elliptically
spinorial
505
0002
𝟓𝟓𝟏𝟏𝟏𝟏
spheroidal
colli
colliding
391
legacy
landwe
parametrically
𝟗𝟗𝟒𝟒
−𝟏𝟏𝟎𝟎
bifurcate
freedman
##−𝟏𝟏𝟒𝟒
synchrony
spanish
noncoll
photograph
##elasticity
webster
carlson
lerch
landscapes
squeeze
mercury
geometrization
wegner
carrots
chabauty
teleportation
4000
aic
elec
s5
tires
zink
¯y
ˇˇ
λj
𝒓𝟐
##𝟐𝟓
##110
##ye
therap
##estimate
##organ
##omi
##perti
##ifi
##unen
lep
##ructive
mex
##ysis
##agers
evid
whatpower
hypert
maximizer
lamperti
##ibi
president
bets
superprocess
markings
cohomologically
permitting
𝑥𝑥4
451
noticeable
a1a2
𝟖𝟖𝟔𝟔
llx
prompted
caustics
jumped
cancellations
##odynamic
beamformers
outlines
##dvv
cheaper
spirals
replicate
xjd1
sounds
shirshov
rectifiability
prototypes
withdrawal
##special
affinity
joyal
meridian
eigenmodes
##octahedral
jupiter
preliminaries
bennett
zehnder
sivashinsky
rinehart
8t
d˚
dow
eλ
fpp
hug
lig
rasm
vase
𝐷𝐷𝐷𝐷
𝑅𝑜𝑡
𝟑𝟎°
𝟒𝝅
##dam
##×𝟑𝟑
##∙𝟏𝟏
##oter
##perm
spa
parap
unre
coifman
invited
discarded
##ipolar
##ional
prepotential
depression
semireg
france
regularised
##ategory
carol
##equin
compactum
presymplectic
hald
spinners
odl
downstream
##loads
owe
conductivities
418
417
chair
wake
##guez
circumcenter
warmer
570
−𝟐𝟐𝟐𝟐
coarser
lasserre
krus
tamagawa
tipping
##artingale
burns
𝑶𝑶𝑨𝑨
pfaffians
funnel
regeneration
recommendation
jenna
ninth
e4t
𝐮𝐮𝐮𝐮𝟐𝟐
pebbles
descriptor
preventing
horseshoe
piezoelectric
awkward
encyclop
##𝐨𝐥𝐮𝐦𝐞
𝑅𝑜𝑡𝑎𝑡𝑖𝑜𝑛
bive
celes
fost
pies
pspace
zx
ω1
∂x
##map
##hman
##−x2
##b0
##𝑽𝑽
##etr
##ethe
anth
alc
whom
##ilies
resh
poho
##tina
nonmon
arity
imath
intrusive
methodological
multipoint
dobr
scher
1940
linial
glance
##iax
miwa
musi
barrel
366
##125
discretised
grounded
bench
𝟗𝟗𝟔𝟔
bbm
splash
tukey
ivl
thomassen
960
synchronizing
revisits
##glers
hydrodynamical
friedmann
staying
telegraph
strikingly
buckling
kisin
antichains
worldsheet
appendices
clauses
byzantine
dwork
lcs
rbm
tard
tib
zs
∠b
##zler
##π2
##ethod
##vem
spun
fied
timer
timely
transported
##istor
soj
sin2x
dynamo
categoricity
sloughter
biregular
maximums
−19
earl
rede
complementation
incomparable
enumerations
mrd
investments
welcome
violates
porosity
quadruples
households
diminish
chessboard
retransmission
helicopters
contagion
nazarov
aids
eric
gun
kyle
m0
rend
x−3
𝑎1
𝑬𝑭
𝒙𝟏
##x4
##kis
##kamp
##fus
##−𝟎𝟎
##ææ
stoc
##rability
defer
equate
dissem
##allow
arisen
dimensionally
assort
coron
basing
sok
upgra
flies
maya
afric
classiﬁer
quasirandom
337
sqrt2
farb
conserve
𝟕𝟕𝟗𝟗
ensuing
promotion
cancels
cusum
contributing
##hamiltonian
bicyclic
##romagnet
microc
pettis
participates
u02
##grids
ikq
##𝜋𝜋12
subordinated
retained
e3x
golay
suspensions
𝐮𝐮𝐮𝐮𝐮𝐮𝐮𝐮𝐮𝐮𝟐𝟐
vogt
portrait
segregation
proliferation
schouten
krichever
kruskal
5i
5a
cev
duld
eeg
eats
oseen
sbs
tony
w0
𝑛th
𝑥4
##𝒂𝒕𝒊𝒐𝒏
##𝑙𝑙
tol
##otope
##aby
##dian
subpos
perf
##def
preceq
lox
designate
##𝟒𝟒𝟑𝟑
separably
couldn
##eteria
downs
orthogonalization
##continu
gauges
−2𝑥
mmw
##widths
##vina
coinvariants
u01
electronics
##theast
voltages
enjoyed
𝑳𝑳𝑨𝑨
welch
extrapol
editing
trinomials
habitat
threat
pebble
horospherical
cafeteria
google
unrealistic
rasmussen
5s
ders
fant
hanoi
o¨uo
races
ua
zr
𝐬𝐬
𝒋𝒋
##mn
##care
##fest
##gglers
##horn
toposes
##structed
##selected
shal
china
sew
##dia
novem
##tail
scener
afl
confuse
##echanical
stragglers
𝟎𝟎𝟐𝟐
coinciding
protograph
lipschitzian
pmb
benn
confirmation
steph
waiter
980
hydra
gravitating
bdf
𝜋𝜋2
elevations
vastly
nonuniformly
##anskii
acknowledge
bibliography
haldane
belyi
etern
hong
mun
wj
∂2
𝑗𝑗
𝒙𝒚
##mod
##siot
disreg
##thu
##achary
republic
planned
multihop
polling
esp
typing
upside
followers
amor
hyperoctahedral
semismooth
##2013
##ycles
##parametri
multiplex
crb
aversion
guard
avalan
spinless
##103
481
𝟏𝟏𝟏𝟏𝟔𝟔
𝟖𝟖𝟗𝟗
likelihoods
𝟗𝟗𝟖𝟖
visualized
tablespoons
##pca
unfair
interpolatory
taxi
quietly
adversaries
reflexivity
silting
eigenstate
concurr
bathroom
vessiot
unobservable
deficit
plethys
icosahedral
eigenpairs
dijkgra
political
mitchell
landweber
november
8𝑥𝑥
cient
dss
ikn
jes
lh
lrc
pφ
ping
ql
sds
ﬂips
𝟐√𝟑
##wal
##𝑣𝑣
##amou
unspec
disgu
coach
##tee
nonre
provability
##illian
died
secular
heading
##egree
19th
aligns
stepsizes
bio
##indent
bestvina
lemn
007
392
424
𝟗𝟗𝟓𝟓
organisms
prescribe
dfldt
predictability
microgrids
fx1
2𝑥2
droplets
mlr5
enlarging
vmo
deposited
unobstructed
subdifferentials
subfamilies
telescope
subscripts
pedestrian
gauduchon
dijkgraaf
a6
dτ
##differential
##𝟓°
##yy
##hta
##itude
##leyn
##acc
coor
undamped
apn
##isha
minimisers
hyperspace
traded
multiplet
quasil
douady
handsp
permissible
##otopy
cai
taub
hardly
copper
milman
##ograms
postulates
𝟏𝟏𝟏𝟏𝒙𝒙
achievements
nilmanifold
𝟏𝟎𝟑
beres
talks
411
stacky
wallach
turtles
sparsest
codimensions
diﬀerentiation
bridgeless
weekend
contributed
gores
2a1
transcription
renamed
2879
portraits
resurgence
solvmanifolds
submonoid
wakimoto
sojourn
citi
dene
fay
lse
lend
n0
nes
oj
ober
vessel
valley
yok
zassen
√𝟔
𝐸𝐹
𝑎𝑏
##iticity
##×5
##−𝒚𝒚
##roken
##oma
##olym
##rah
##anda
obsc
ack
multitype
noindent
coring
teeth
##tava
heine
codazzi
semior
traver
designer
##relson
helices
##onomy
actor
redistrib
##levich
sixty
convol
caustic
dfa
𝑚𝑚𝑚𝑚
statisticians
##𝐵𝐵𝐵𝐵
behr
1956
perturbatively
gmd
photonic
journals
kurt
suspect
subordinators
nikol
allele
densest
##hugh
narrative
favourable
suppressed
derangement
descriptors
injected
imperfections
curfew
linguistic
parahoric
unpreced
eligible
bennequin
dant
nw
saus
sbm
valle
√𝑥𝑥
##mens
##jj
##ikawa
##hel
##𝒗𝒗
conception
##elder
##imits
equipar
##abay
modifies
##teleyn
nonseparable
papp
constancy
pointers
##finitely
##agen
##onda
greed
transit
descends
formulates
presently
##ofthe
minimising
equiv0
responds
lognormal
accid
timescales
1800
hereby
precurs
quasipar
oscillates
reflectionless
##athy
431
449
𝟗𝟗𝟎𝟎°
strike
464
texting
−𝟏𝟏𝟓𝟓
##agnetic
bicovariant
𝟏𝟏𝟑𝟑𝟐𝟐
multiclass
tractor
finishes
bimodal
delete
garsia
shedding
burning
kasteleyn
xr1
##royd
reconfiguration
recollement
fitzhugh
takahashi
narayana
tsirelson
cohesive
arccos
samplers
resemblance
lemnisc
unprecedented
023
2𝑖
6g
bunch
ery
hann
kore
korn
nests
wen
√4
𝟕𝟗
##v3
##˝os
##ono
anim
##rij
##riger
##ectral
chic
chek
coassociative
finest
interiors
1500
1818
factorisations
initialize
bredon
crunch
helical
minimums
hardening
extremality
426
landmark
ambro
erd˝os
huffman
dnls
1964
multich
##𝐶𝐶𝐶
tracer
econometric
reminded
quasicrystals
ampleness
facilitated
facilitating
##ircle
metrized
hetnet
depicts
manufacturer
craig
xavier
##642246
metamater
outdoor
undeformed
confounding
abscissa
quasistatic
pseudogroup
ruzsa
1l
2ex
7𝑥𝑥
bms
colding
font
gq
rans
rca
vem
vak
σk
√6
ﬁts
##winder
##≤𝒙𝒙
##isz
ish
##ela
altitudes
##odules
maturity
##phones
##thec
qui
quilt
##ermitian
##yser
discl
flood
belavin
impressive
leftrightarrow
crs
hille
tensoring
barth
402
oppen
taubes
sharpened
speeding
accessing
unbroken
deducing
riss
trigonal
conductors
𝑎𝑎1
informational
distinguishability
aggressive
statistician
streamline
850
julie
##ystems
𝟐𝟒𝟎
classrooms
ignor
textsc
manifestation
##𝐢𝐭𝐲
𝑚𝑚∠𝐴𝐴
restaurants
pixabay
𝟗𝟗𝟗𝟗°
handlebodies
##ipedia
olsh
wikipedia
semidiscrete
uhf
subcubic
unpredictable
gambler
duldx
dantzig
2√2
515
6c
7y
bout
bsc
kc
kot
qh
tale
𝑶𝑷
##dn
##×𝟓𝟓
thz
##inus
##acted
fork
##olo
##ainerman
##ichael
subregular
acs
decimation
apri
casey
definably
colourable
positional
subsolutions
scanning
deline
schema
smoothers
cosecant
normalisation
revo
##indler
almonds
summed
morel
profits
falcon
𝟏𝟐𝟖
990
routin
accelerates
523
codimensional
576
koorn
𝟏𝟏𝟑𝟑𝟏𝟏
spacial
tallest
sortable
bialgebroid
zeit
kimura
inactive
nagy
zagreb
permanence
seminorms
systole
witnesses
𝟔𝟐𝟓
rateless
carmichael
horocycle
creek
biquandle
newspaper
kampen
goresky
zassenhaus
koornwinder
0°
4y0
bite
jung
kenn
lott
nit
pore
wend
ylab
∂y
𝐀𝐀
##pack
##1t
##volume
##→−∞
##enauer
##eme
##perin
bek
spok
oracles
##ivia
chas
disinteg
seq
useless
engin
managing
corings
theirs
##communic
factorizing
brend
picnic
boxtimes
𝟎𝟎𝟑𝟑
segmented
owes
##kinson
visuals
cooperating
bispectral
bulle
displaced
tamed
nc1
##pectrum
karh
davies
anticipating
plasmas
suspended
𝝅𝝅𝟐𝟐
ancillary
##𝐨𝐨𝐨
altered
mortgage
isothermic
dummy
subconvex
##greater
polystable
subnetwork
babysitting
gronwall
celestial
2⁄
3sin
dre
ero
guth
lia
lenn
nθ
outs
tive
−𝐜𝐜𝐬𝐬𝐬𝐬
##pel
##fork
##omplete
##imark
##oton
expects
verlag
knuts
##vile
triply
##isman
##obe
secondorder
concini
slo
slides
𝟐𝟐𝒕𝒕
subtracts
gaussianity
orthomodular
harts
genomic
503
stragg
##height
viral
𝟕𝟕𝟎𝟎
mutant
drank
promotes
1804
gkm
476
contractivity
hoop
1961
puncture
rodri
skeletons
attendance
olymp
distillation
𝑨𝑨𝑨𝑨𝑨𝑨
extendible
vergne
vieh
##icharacteristic
yogurt
routinely
014
aar
jen
litt
qg
qz
wires
xiao
−p
𝑁𝑁
𝒂𝟎
##fn
##yd
##zability
##∙𝒙𝒙
inqu
forking
##olsky
##identi
##igs
reut
paves
undertake
##angulated
imit
simonov
dimen
pls
##lowitz
opers
schematic
##ensh
##uster
evapor
##atistics
homr
logs
angeles
##2018
16t
handful
separations
elk
407
363
deformable
keel
baggie
irn
gallager
candles
##−𝟏𝟏𝟓𝟓
csma
dsm
gotten
detectability
femtoc
dmc
lusin
rrhs
renewed
shuffles
documents
1990s
coexisting
autocovari
𝑺𝑺𝑨𝑨
restored
compliance
plumbing
nonresid
engines
2θ
duck
egor
hin
migu
rental
ℝ3
√𝑎
𝐴𝐷
𝒃𝒉
𝒑𝟐
𝒛𝟐
𝟐√
##iw
##gavet
##zil
##≤n
##onowicz
##atti
##atowski
##planes
##ifference
dea
univalence
chant
clause
adhm
derivable
log𝑏
deprec
furman
##series
eigenproblem
stepwise
##onsker
riem
pathways
refriger
correctors
gupta
##cepting
cafe
hardest
breathers
−24
failing
dealer
functorially
463
mdl
flexibly
mrt
bmw
hugh
tunable
##𝝅𝝅𝟔𝟔
kerov
deliber
canceling
ohta
pontrj
stembridge
pendant
butterflies
conceived
sunflowers
daugavet
amplifier
moscovici
colluding
finitistic
muffins
traversed
##rijver
apriori
simonovits
miguel
bends
rhe
splic
tone
wannier
ϕ2
ﬂip
𝐕𝐨𝐥𝐮𝐦𝐞
##zano
##∙𝑥𝑥
##tique
##ethat
##elength
stocks
maze
grader
theorists
ablowitz
geographic
smear
##akami
##mahon
##acking
emitted
calm
amg
distal
##equation
##otsu
woronowicz
##iki
sharpening
farkas
hermiticity
453
discretisations
owners
orbitally
thinning
messy
majda
436
496
restore
earning
##zaev
##𝜋𝜋4
commentary
disproved
conventionally
polyomino
subcomplexes
ultraproduct
buffers
ehrenfest
stallings
envisioned
acoustics
eternal
pontrjagin
812
donsker
fθ
fes
hern
lmmse
mour
tmf
viv
𝑶𝑨
##¦rm
##uu
##yard
##hermitian
unin
##check
##ysin
nozz
hyers
coder
monomorphisms
sl2
independ
##ropri
##ordinary
geq4
textless
textgreater
lawvere
yearly
sparsification
chapman
swan
bandits
researches
pmf
y02
c2e
465
substructure
incompressibility
overlay
𝐥𝐨𝐠𝒃
##aniec
chowla
gira
bvp
pouring
disproves
macrocell
murakami
##√𝟑𝟑𝟐𝟐
premise
cofib
jennifer
medication
##additive
lizards
superconductors
declared
bogomol
yoshida
marshall
lyubez
thermostat
##reduced
resumm
sacrificing
affiliated
karhunen
1─
2ab
3y0
514
bures
worms
wdvv
xrightarrow
−n
##baki
inhib
##omics
##amen
chron
coqu
arctic
incred
schrijver
evac
outflow
amy
blan
𝟐𝟐𝒃𝒃
𝒙𝒙−𝟒𝟒
focussing
##rones
builder
sneak
polarised
394
duister
438
recognizes
−3𝑥
stacking
pressures
nori
clarke
airport
bicl
taxable
misconception
nuclearity
terr
##integrability
rearrangements
bourbaki
gonz
𝟗𝟗𝟗𝟗𝟗𝟗
forgetting
tumour
1960s
ancestor
genealogical
sunday
unbundled
mabuchi
toothp
ladybugs
##olecular
multivector
jessica
blueprint
pigeonhole
dieudonn
5b
jd
kul
kou
lop
lighth
n4
sail
wpc
δ1
−ρ1
𝐕𝐕
𝟗𝟒
##motsu
##tc
##tman
##𝒓𝟐
##√5
##atov
##ulses
##urance
##utani
unra
displace
##ustion
leech
##sos
systemic
derr
pluto
abd
overcomplete
movable
probes
endoscopic
convergences
circling
combat
eigenc
naturals
demographic
𝟐𝟐−
rankings
predecess
colorful
advent
457
bandwidths
anne
𝟏𝟎𝟒
421
bernd
perpendicularity
nontrivially
445
emerg
bridging
jordanian
girard
𝟐𝟐𝟐𝟐𝟏𝟏
coinvariant
thermodynamically
engineer
sieving
integrity
##−𝟑𝟑𝒙𝒙
wooden
cancelation
nystr
kenmotsu
judge
rabbit
ooooo
ostrowski
drain
greeks
subdirect
jorge
vaccination
necessitates
freudenthal
italian
denef
mersen
sara
vap
𝟖𝟕
##ea
##sig
beacon
deer
mah
##ribes
##direc
transonic
incoherence
##maat
scs
©2016
seniors
orthoc
##spectral
downwards
boxicity
sixteen
𝟖𝟖𝟒𝟒
painter
fuk
supersymmetries
burg
peaked
shoel
isotopies
libraries
elaborating
frictional
exhaustion
subtleties
paradoxical
otto
pipeline
dressed
landsberg
√𝟑𝟑𝟐𝟐
vinberg
subbundles
chickens
compartmental
lozenge
neglecting
monolith
enrollment
dobrushin
sokolov
lyubeznik
mersenne
2𝑎𝑎
cakes
hq
kines
mold
myc
uw
vq
v4
zerm
−−→
𝑦1
𝒂𝒙
##mond
##k−1
##uv
##whe
##λ2
##arth
toselected
##omers
##ometers
proficient
##lygin
whichever
alliance
10𝑥
overhe
frac15
##epar
##orphic
emi
squir
𝟏𝟏𝟐
densification
##ausal
2500
defl
crude
bundling
permuting
advice
m2m
edgeworth
shortened
thirteen
##107
##𝟏𝟏𝟏𝟏𝟏𝟏𝟏𝟏
foul
szeker
##ivalences
wiles
alek
pleas
arcsin
subdivided
##rigues
𝟑𝒙𝟐
suboptimality
rodrigues
##inskii
dwyer
golf
dolg
##𝑋𝑋𝑋𝑋
visitors
pigs
ghosts
marsden
vegetable
polydisk
rejected
catenoid
∇juk
kirkpatrick
inadequ
j∈j
rehearse
wulff
undertaken
pohozaev
knutson
duistermaat
szekeres
3y2
gom
gonal
g−1
vall
γ2
⇐⇒
ﬂow
𝑾𝑾
##nt
##rish
##uates
##yv
##bin
##zens
##reys
##quez
shut
##irn
orr
##charg
##ermost
##areal
cori
##ologist
##ensor
evs
ende
supposing
combustion
patodi
categorify
globular
grun
suitability
privile
situated
kah
recept
𝟏𝟏𝟏𝟏°
##operative
bipartition
grassman
eclip
outperforming
gramian
−𝟐𝒙
ultrapower
certify
economical
karl
2𝑥𝑥2
americans
damaged
tcp
contrasted
rolle
tannaka
quadrangles
microscopy
ratings
choral
sherrington
hansen
brinkman
tetrominoes
srivas
foster
zermelo
4z
cic
cork
dick
fmm
ovals
pcs
sog
sip
wink
x→∞
zin
##pur
##days
##iams
##≈𝟏𝟏
reorder
##this
##plexing
10y
corruption
recap
##akers
##orship
log𝑏𝑏
patter
multiplicativity
raj
##lede
indicial
502
𝟏𝟏𝟐𝟐𝒙𝒙
benders
solitonic
ultrac
irrationals
szn
578
##ophys
##ialgebras
b1x
tetrad
jamie
replicas
klainerman
photos
𝒎∠𝑫
𝐬𝐬𝐬𝐬𝐬𝐬𝟐𝟐
stayed
kraus
witnessed
veselov
##asmine
##istributions
positroid
parafermionic
develo
unambiguous
equivariance
di↵erent
alembert
5z
gysin
pess
wight
zil
βj
→−∞
⊗r
𝒃𝒙
##face
##fted
##tane
##wami
##umbers
##uries
syz
##andez
haven
subrou
abandon
decks
yours
laff
becker
fourteen
27r
##hoot
quasianalytic
hamiltonicity
separator
𝑥𝑥𝑛𝑛
odometer
509
stirr
validating
swir
90∘
torsional
relaxes
blackwell
ecosystem
##111
richter
##uert
koh
gradual
broadcasts
𝟏𝟔𝟎
thickened
𝐜𝐜𝟐𝟐
pursued
kuratowski
##factors
semicircles
##onsistent
𝐜𝐜𝐜𝐜𝐬𝐬𝟐𝟐
enforces
bryan
##williams
microscale
lobachev
dissection
pioneered
married
subquotients
varsham
forgotten
##stepping
skateboard
lelong
strominger
multichannel
rodriguez
3𝑦𝑦
bau
felt
mound
mys
sont
wint
𝐶𝐶𝐶𝐶
𝑩𝑨
##m0t
thro
##anal
isotyp
##asis
##sid
animation
##aria
##ocated
##dient
adl
variates
descart
characterises
surpass
eme
codim
laura
wasn
quantised
cosser
cycling
singlet
statue
barely
downloading
poised
genotyp
tangencies
chaplygin
raman
𝟖𝟖𝒙𝒙
441
externally
copyright
𝟐𝟐𝟐𝟐𝟓𝟓
stripes
##central
##ijer
watched
##khorn
sandbox
kurdy
2πi
ekeland
##𝐚𝐧𝐭
cascaded
henri
phylogen
telecommunic
puls
neuro
biomed
plethora
fuglede
##6422468
florida
duty
uncontrolled
kaneko
scrambled
##endorf
vowel
encyclopedia
tibsh
scenery
viehweg
varshamov
8b
aks
fow
gff
mps
rabi
vit
##dr
##auth
##gle
##𝐮𝐚𝐧𝐭
##implicial
##raham
##ilpotent
##tered
coch
haiman
underestim
discounts
strassen
emissions
positiv
continuations
diffusing
quasimorph
texture
costa
takagi
halting
doug
irred
halfspace
summations
ers
visiting
##ronous
beforehand
actuation
482
milstein
groundwork
owns
##imodular
asserted
precoded
goto
akh
aleks
##enbaum
##−3x
shadowed
insightful
acquiring
gmm
##gradient
annihilators
kronheimer
nica
longitude
synthesized
biquad
hypoellipticity
villani
clothes
jewel
grammar
johans
hypercontractivity
schelter
dinosaurs
revoice
sznitman
descartes
cosserat
##𝐮𝐚𝐧𝐭𝐢𝐭𝐲
2an
aod
cds
grob
nab
nach
n−2
n≥0
xlab
−l
√𝒙𝒙
𝐏𝐏
##cn
##cases
##opoulos
##apped
##section
##w2
##bro
##zak
##invariant
inert
##omple
isra
weih
##irst
compelling
equa
usa
##keys
perrin
openc
linearize
##akumar
##itsky
minimisation
semis
infra
impurities
tablet
backstepping
2x1
prioriti
macwilliams
morphic
benny
relativ
steve
##zewski
turan
hoh
cached
graduated
d2y
664
musc
catalog
ikeda
3𝑥2
paradigmatic
narrowband
instructive
coalescents
1xnd0
cvar
𝑚∠𝐵
carpets
indeterminacy
altering
##𝒓𝒓𝟐𝟐
furniture
concurrently
abbreviation
vogel
sustainable
arbor
juniors
catenary
astronomical
hyperedge
epochs
##integrals
##wedge
semiflows
macroscale
disparate
minkows
##≤𝒙𝒙≤
squirrel
wightman
kurdyka
7b
fate
msc
ˆb
√𝟒𝟒
##pk
##vr
##𝑼𝑼
##⋅3
##⋅𝟏𝟏
##orrow
##aters
##isters
##isken
andersen
##aced
propp
##imo
##aman
##rauch
reins
parker
grab
grauert
meijer
abb
##ideg
ope
indiffer
sche
topography
scma
##iah
leftmost
iik
rationale
crlb
sigm
𝒙𝒙−𝟓𝟓
deviate
𝟏𝟏𝟏𝟏𝟕𝟕
practicality
473
copying
2mm
remembering
pdfs
interpolations
collisional
##kete
reconstructs
pseudocode
##lenk
golod
goldie
pipes
##𝑂𝑂𝑂𝑂
wholesale
godunov
interlacements
elasto
inevitably
lnjxj
wirtinger
surviving
weaknesses
timestep
yardstick
rederive
##lemma
reutenauer
srivastava
patterson
tibshirani
weihrauch
minkowskian
022
7n
8⁄
bner
brian
e8
hibi
janson
lenz
n×
n∞
rent
tides
uz
wiley
wahl
yin
zor
𝑳𝟏
##qn
##kt
##−𝟒
##∙2
##→r
##≥𝟏𝟏
##alo
##rooted
##etter
ana
##idt
##perfect
##atin
modiﬁed
payne
commands
intense
providers
##iele
approximative
sinkhorn
impulses
blend
superset
supervis
simpliﬁes
##ruit
macmahon
##heuristic
−2x
irss
mertens
bbg
9998
ecg
𝒂𝒂𝒃𝒃
liouv
519
tomorrow
augmenting
multicell
goldberg
collector
1955
jackie
wondering
terry
pivots
hotd
experiencing
rhyme
iyama
subgradients
submodularity
yeah
tissues
palindromes
equicontinuity
paramount
kissing
octahedron
madsen
koml
luttinger
immunity
shubin
therapy
semiregular
6⁄
7a
7e
fati
gai
lps
vign
wad
𝟗𝟏
##d2
##don
##cb
##gression
##inet
##elak
##stud
##verman
shab
compet
resistant
untr
chase
##eneral
levit
##racellular
decisive
sech
charlier
triality
approximability
fekete
boils
##ropy
##parallel
comparability
rost
helium
textup
couette
𝑥𝑥1
483
𝟏𝟏𝟏𝟏𝟖𝟖
neighborly
𝟏𝟎𝟔
propagated
futaki
c1y1
oliver
666
tunn
saturating
khin
formerly
1952
participant
bialgebroids
iwaniec
decouples
nondetermin
gabber
𝑚∠𝐶
montesin
harrison
confluence
fleet
speedups
elastodynamics
puppies
unfolded
araki
cryptosystems
comonad
hypergroups
phonon
𝐷𝐸𝐹
minuend
kakutani
donoho
twentieth
unspecified
montesinos
3−
4f
akn
cras
dpc
gans
u´
x¸
zg
−r
√13
△𝐴𝐴𝐴𝐴
𝟏𝟐𝟐
##dg
##jf
##×𝟏𝟏𝟑𝟑
##𝐥𝐞
##occo
pave
20th
curi
assistant
dilemma
##ercive
##ovan
serge
linda
16x
lambek
supert
textqu
##redi
separatrix
elong
##ctors
##lette
scatters
485
snacks
ramifications
dotsc
owned
career
rsa
strebel
automaticity
##𝑫𝑫𝑨𝑨
##anuel
##𝐵𝐵𝐴𝐴
reflector
occupies
##𝜋𝜋3
enclosure
peccati
peppers
wetting
isocrystals
##°𝐅𝐅
recycling
forcings
rephrased
developped
9x2
dps
feld
uwb
wis
±√
θn
𝐨𝐨𝐨𝐨
𝑂𝐵
𝑳𝟐
𝟐𝒃
##fp
##gens
##wide
##vp
##vol
##enkel
##atches
##edahl
chore
pak
adically
underlie
invokes
##caled
smokes
##anne
polynomiality
monost
loeser
##iversal
polyakov
hamburg
hammers
radios
harry
permute
peeling
misalign
henceforth
herman
postulated
386
𝟏𝟏𝟐𝟐𝟒𝟒
myers
typicality
microm
paints
##away
468
493
##copically
tracked
##onnected
masa
metaheuristic
luk
intertwined
cascading
bilayer
riddle
lived
melting
documented
colleagues
neron
cocompactly
boosted
morton
culminates
elucidated
homflypt
committee
noncooperative
rebounds
tribonacci
catalytic
bursting
chicago
pessim
0s
614
920
bone
gang
tul
xia
yong
𝐿1
𝐿2
𝟐𝒏
##qk
##sor
##𝐜𝐨𝐬
##𝜷𝜷
ineffective
##seev
##quin
chud
payl
acres
moist
##usted
##maxim
realise
preperiodic
logit
hyperd
semib
loe
sloping
##2016
1819
erat
recurring
cardy
brake
swift
perfectoid
milne
−25
births
resolvability
bendi
##lsson
winners
instantly
circumfer
pythagoras
huisken
950
rcpik
pushes
𝑂𝑂𝑃𝑃
##𝑅𝑅𝑅
titled
##𝑷𝑷𝑷𝑷
ekedahl
nanot
borrowing
recommendations
fraenkel
𝐟𝐟𝐮𝐮
infeasibility
junior
bursty
disadvantage
##𝐨𝐥𝐞
pitchfork
hindman
nurbs
caterpillar
nonbinary
schaeffer
gibbsian
deemed
fiedler
curiosity
hammersley
013
1z
asian
gros
mbs
pest
upto
∠𝑪𝑪
ﬂrst
𝟖𝟎𝟎
##product
##oise
##ked
##kan
##jd1
##√𝟓𝟓
weis
clopen
meth
hastie
##ondo
##illon
smiley
##itsch
cola
heap
approximant
##alski
centroids
1815
refresh
backyard
##ups
##ugal
peier
hourly
braverman
harmonicity
binormal
abstractions
berenstein
nonnull
bender
slowest
462
##coping
1809
−𝟏𝟓
gpus
customized
graduation
manipulated
liquids
pcp
fyy
efron
nikif
healthcare
1949
bidding
semifield
holmes
prolongations
breadth
##ricksen
incompatibility
superdiff
subdiffusion
sculpture
incentives
gmsfem
##identical
monolithic
alekseev
6k
aber
cables
dac
ericksen
pem
rous
rode
sft
yum
√n
##lat
##ﬁcient
##𝐈𝐈
##arro
stadi
##stat
##terovich
##ativeness
coplanar
nondi
linearities
##angling
polterovich
##iani
esn
detrim
##undant
triangul
freid
freiman
grushin
handy
harper
kahan
##−16
actuated
emptiness
jacobst
deviates
breast
propensity
382
548
stabilizable
promises
c2y2
467
quickest
airline
streets
nonconservative
circulating
householder
arcsine
aaaaa
##𝑏𝑏2
reconstructible
anticipatory
responded
##naud
leafwise
canceled
##character
bona
pedersen
bkp
clubs
campan
barycenters
eﬀective
undecidability
scarce
microstructures
pandemic
aubin
##basis
watermelon
epidemiological
chatterjee
ambrosio
bulletin
resummation
aleksand
eratost
5e
6z
618
7c
b4
cabl
cucker
dichotom
ees
gou
lund
mans
mia
oats
srin
vine
ˆd
˛n
√𝑏
##x°
##n2
##m2
##tre
##300
##112
##henes
##ulus
##immer
##rians
shtu
spiel
clas
nonm
seated
subreg
accepts
##150
receding
prison
sobol
butcher
homo
infections
drawdown
loo
elementarily
negatives
choquard
helpers
transmutation
##tural
parallelized
analytics
harary
401
pseudovari
caution
redistribution
##heaves
flagpole
submar
𝒃𝒃𝒙𝒙
engineered
##oij
buyer
##3333
bowls
collaborate
deaths
prefers
ﬁtted
riverbed
szegedy
supersolvable
corroborated
##𝐠𝐠𝐠𝐠
krause
inext
ninths
offsets
epidemiology
imprimitive
galaxies
pluricanonical
autoequivalences
bhattachary
##following
𝐖𝐡𝐨𝐥𝐞
musielak
hydraul
##differentialequations
derrida
kinesthetic
eratosthenes
8a
dich
eds
fx2
gust
lily
nig
qy
rer
xin
˜h
σi
−λ
∠a
∠𝐷
∠𝑨𝑨𝑨𝑨𝑨𝑨
##qam
##dim
##rank
##uti
##vet
##atching
ando
##urves
existed
##ema
shint
ships
unrooted
chest
quest
metabolic
subob
arts
provider
##oscale
12x2
incon
##akrish
folder
infinities
smallmatrix
monkeys
factorable
simulates
confron
argues
##sibly
pseudol
ears
deforms
##lexive
##𝟕𝟕𝟕𝟕
547
subcodes
ahlerian
richness
diﬀerenti
ﬁnally
##example
adaptations
516
benchmarking
macaulay2
macaulayness
𝐵𝐵𝐶𝐶
1958
amplified
875
subdivide
reserves
anc1
contradict
ˇˇˇˇˇˇˇˇ
boosts
multimedia
##aughlin
katok
cofinal
qkd
saga
bezout
trisection
resistor
hyperparameter
cardiac
prerequisites
##wede
unbundling
pluriharmonic
transports
duflo
catastrophe
qudit
brenier
equipartition
coriolis
biomedical
israel
peierls
freidlin
aes
bann
cry
dah
kus
pso
tidal
u4
−𝐥𝐥𝐥𝐥𝐥𝐥
𝐦𝐩
##core
##lis
##jm
##fellar
theo
##erz
##ante
propto
stal
##segment
reine
shat
shore
orner
canard
le1
mein
enard
intends
cord
veriﬁcation
baskets
linearisation
tripled
specular
##oflinear
1920
1910
centri
##overing
##haev
agler
𝟐𝟐𝟎𝟎𝟎𝟎
entw
royal
getzler
alternates
viewers
stip
projectives
##−13
sharpens
orientability
swings
varifolds
sensory
surveying
duplexing
llr
433
𝑎𝑎𝑥𝑥2
posteriors
stojn
salv
##−𝟐𝟐𝟐𝟐
adjusts
instructor
darmon
mnist
acyclicity
babai
pcf
adsor
𝟒𝟓𝟎
nakano
##oshi
dags
superstable
duplicate
quadrangle
navigate
drastic
unfoldings
astronomy
scrolls
mediated
rocka
inﬁnitesimal
autoencoder
quadrotor
bivector
hughes
emergency
indifferent
detrimental
shintani
0n
4𝑖
bds
ctr
drones
luck
o2
qut
vv
xv
xh
𝑟2
𝑧2
𝒙°
##mum
##mez
##ovi
##lc
##f1
##vn
##inen
##enburg
##icella
##iside
alive
dewitt
coast
numbering
leo
##ffe
undet
20x
expend
1011
abraham
diet
inclined
schach
frac25
calendar
semidual
glm
blade
inverter
revolutions
backs
walter
treas
cao
repe2
bald
diagonalize
employment
383
substitutes
viii
refinable
446
merged
pressing
interfere
olive
circumsc
##−𝟏𝟏𝟑𝟑
burk
𝒃𝒃𝟏𝟏
discontinuously
532
##chmidt
heaviside
672
vlad
batting
𝐿𝐿1
garage
##nyak
assembling
semilocal
piggy
declar
collaboratively
solenoids
pierre
athletic
gestures
santos
gleason
acylindrically
zaslow
##horne
##nevich
spoken
##wheel
chudnov
rockafellar
5𝑦
crou
cia
goth
h6
horm
kate
karch
ryser
¯x2
𝐐𝐮𝐚𝐧𝐭𝐢𝐭𝐲
##x0
##kg
ford
##ulder
prokh
asm
reif
parks
canal
simo
abhy
reconn
overestim
overfitting
calc
flrw
quantale
reducts
carr
loans
involut
partitive
guests
focs
advancing
##letes
criterium
##archy
congress
capp
literatures
484
nba
obstructed
497
massively
graviton
liftable
ocw
karou
𝑧𝑧1
disproving
nagel
yuan
ascoli
𝟒𝒙𝟐
exhaustively
nucleation
congested
wolfram
n−k
rachel
##imentary
bimon
##tube
subchannels
japan
eﬃcient
monitored
bloom
preamble
supercongruences
chunks
tardos
falconer
hartshorne
gaiotto
fde
gub
holev
henn
jou
−u
∠𝐴𝐴𝐴𝐴𝐴𝐴
𝑂𝐴
𝑎𝑥2
##apers
##tm
##÷2
##wes
##×𝟒𝟒
##zant
##≤x
##ede
topping
##ectic
sts
storm
stellar
##sta
##sier
orchard
##cha
clamped
cographs
##dies
apps
10th
moul
schles
randi
##ubes
metrical
mostow
denois
standardization
torn
demonstrations
ringed
shark
placebo
criterions
##semisimple
bernard
𝟏𝟐𝒙
−30
turtle
𝑏𝑏𝑏𝑏
cycloid
attracts
lauricella
𝟏𝟒𝟎
litter
##appropri
patio
worthwhile
nikil
mentioning
regulators
alleles
tbsp
seriously
lubotz
pumpkin
scripts
josephson
bieber
lumped
squashed
reiterate
waldspur
##oscill
unravel
hamburgers
aleksandrov
hydraulic
holevo
lubotzky
waldspurger
3h
brak
mbm
´2
−x2
∠𝑨𝑨𝑨𝑨
𝐢𝐢
##rd
##rk
##∙3
##𝐧𝐝
##inom
reti
##ivas
debit
disent
copositive
solov
groupes
10n
intent
sims
##osph
##esta
randomised
quantal
1828
senders
openness
figured
quasid
mueller
downloads
mpi
cdot2
naimark
a2n
stabiliser
encodings
gallup
claiming
##otedbl
dispersed
rsk
##iliation
##coef
finishing
1959
𝑂𝑂𝐴𝐴
pluripolar
plasmonic
announcement
funk
servings
viscoelasticity
𝑥𝑥−𝑎𝑎
irreversibility
firmly
quasiconvexity
hypercyclicity
reparameter
isaac
zakai
jeffreys
granted
retransmissions
felder
weinberger
raphson
dangerous
##bourne
concurrency
##amenable
shoelace
sogge
zilber
##analysis
bbgky
textquotedbl
bendix
nikiforov
srinivas
stojnic
prokhorov
schlesinger
940
d−1
g◦
gian
h−1
j0
ket
pda
uct
ˆµ
−θ
√22
𝐵𝐷
##nitz
##cf
##−r
##⋅1
exel
bever
mathds
parareal
coined
adverse
subrepresent
indifference
schin
prehomogeneous
hypertor
hyperspectral
monkey
identiﬁed
combiner
1812
defender
quasitoric
normalize
globalization
halmos
507
percenti
𝟎𝟎𝟔𝟔
##loop
𝟔𝟔𝟏𝟏𝟏𝟏
##𝟕𝟕𝟏𝟏
enumerates
epigraph
529
##proof
bulbs
##−𝟏𝟏𝟎𝟎
constituted
##anova
580
covariantly
680
julio
masking
rains
##enna
𝒛𝒛𝟐𝟐
dpg
honor
ohts
ascertain
##xxxx
viscosities
glueing
vibrating
trusted
flavour
jaynes
intentionally
stuffed
oeis
quasinormal
##antha
accretive
sausage
incredibly
lobachevsky
biquadratic
campanato
3√
620
6000
bure
bard
bruck
bideg
dul
eynard
katon
lash
mra
µi
β4
−ρ2
∠𝑫
𝐤𝐤
𝐱𝐱
𝑧1
𝒚𝟏
𝟓𝒊
##pre
##lav
##bh
##𝑨𝑪
##isse
##olf
stev
##sek
equipotential
##antum
alloy
haag
expres
##lla
acb
10⁄
##finiteness
aba
##onding
connex
##oven
numeration
associators
gls
1827
##have
superspaces
capill
𝒙𝒙°
colorability
rigor
testbed
correlator
memo
hopes
486
binet
1807
restated
csa
windmill
630
koen
guessed
securely
accumulating
fibrewise
𝒎𝒎∠𝑩𝑩
𝑧𝑧2
##−𝟒𝟒𝒙𝒙
2c2
lmis
smartphone
kantor
sinusoids
restoring
##ambda
coalitions
venk
installed
energetically
inheritance
subpac
reconciliation
misclassification
powder
todorov
archimedes
##intuitive
indivisible
inﬁmum
semitopological
precursor
autocovariance
akns
circumferences
jacobsthal
reifenberg
abhyankar
katona
2𝑡
gz
hud
hiron
lil
lner
oð
pth
ras
ritt
yocco
ρk
←→
∆𝐴𝐵𝐶
𝐤𝐦
𝑏𝑦
𝟑𝒂
##eo
##hen
##zon
##¹v
##⋅5
toot
ist
shin
rescale
chimer
disney
disrup
##roux
uss
##angel
hashing
##aped
schanuel
charity
colin
colmez
developable
centuries
deflection
𝟑𝟑𝒙𝒙𝟐𝟐
gru
tangentially
projectile
2x4
broth
postage
dominoes
keating
excision
coherently
extraordinary
footing
placements
tan2
##zeix
ivan
4xy
660
aggregates
entrywise
##𝟐𝟐𝟐𝟐𝟐𝟐
quarterly
participated
##quadric
armstrong
rlnc
kenyon
supermodular
rabbits
##foam
cesaro
dendr
mouth
intentional
##urfaces
advocated
western
chromos
equisingularity
mosquitoes
stereographic
semiconductor
paracontact
trillion
huygens
zorich
chudnovsky
crouzeix
bieberbach
venkates
hironaka
yoccoz
1≤
8k
epr
garn
iron
jasmine
lame
mq
mack
t−
αk
ξi
φ2
𝒃𝟏
##c3
##houses
inappropri
##isa
##ationarity
props
##sida
##urg
##riangular
##ained
meals
dimers
planner
secants
marton
lauda
1112
samantha
patching
##2014
1415
##assign
superintegrability
crane
predators
chaining
schoenberg
valve
magnets
458
explorer
bagels
joey
conductive
stabilisation
axiomatis
−32
499
725
indefinitely
##adeh
sunny
##atsu
pnp
absorb
v2v
𝟏𝟑𝟐
yosida
addendum
##eterminant
quench
yjd1
𝑺𝑺𝑺𝑺
sextics
censorship
favour
##ourseware
hypersphere
quasipolynomial
motif
rumor
pancakes
overpartitions
duffin
physiological
borisov
tongue
browder
##adjac
teaspoons
neutrino
apost
berestycki
opencourseware
1r2
3𝑥𝑥2
bram
c12
fsi
iko
jog
kent
psp
rhod
uph
ware
ˆσ
πr2
φ1
χ2
𝟒𝒂
##dar
##osi
##aque
##rus
##gt
##h1
##⋅𝟐𝟐
##edo
inward
stant
##rati
##iliter
rez
beauty
##getic
sph
dispos
##arias
coasters
##occ
##andt
ark
invoked
evader
##eps
resultants
phel
##enga
folk
log3
carto
##2017
##atural
ellenberg
distributes
##ochka
eigenvari
cosimplicial
defense
neglect
fluent
sauce
checkable
070
bradley
balogh
breiman
−2ρ1
009
slows
landed
xy2
1808
cpm
waals
477
fractured
kleitman
csisz
hoelder
657
temporarily
4x4
−𝟐𝟐𝟑𝟑
transcend
##ircular
ssa
sqcup
𝒎𝒎∠𝑪𝑪
comprehensively
culture
lenses
calibrate
𝟏𝟕𝟓
grandm
##vais
permanents
eﬀects
decontextual
supersolution
wavelengths
cherries
hensel
vesic
compromising
superpotentials
convinced
ultraspherical
##leftrightarrow
hofstad
galaxy
amoeba
demodulation
matthew
qpsk
reinterpreted
sewing
handspan
payload
burkholder
disposal
0w
cows
dca
fuss
helf
jake
rut
ttt
zt
α3
∠𝐶𝐶
ﬂu
𝑹𝑺
##pike
##np
##number
##kp
##×4
##√𝟐𝟐𝟐𝟐
##≈𝟐𝟐
shani
##ivier
parities
grafting
mead
groupings
intr
exams
##ipal
transgression
incenter
##via
phased
specker
heaps
𝟏𝟏𝟎
identifications
lining
freeway
gamp
##particle
superfield
supercomput
precession
refute
ortho
accuracies
separators
permutative
adaption
0005
##−14
cardstock
##106
##look
milliliter
joints
##prin
bayer
lightly
442
𝑎𝑎𝑥𝑥
3x4
mmv
##−2𝑥𝑥
believes
endowing
534
puff
synchronize
constituting
temporary
discriminate
wonders
hua
architect
aggregator
saddles
cfo
1953
##𝑦𝑦2
umbre
chebotarev
##simple
tricks
mitigated
pentagram
preface
bousquet
kostochka
##vaire
##nosel
ordinate
jeans
aquariums
guideline
leaky
telescoping
neatly
natan
ultraproducts
insulator
povms
azimuthal
nolimits
tortoise
weitzenb
##continuous
refrigerator
liouvillian
shtukas
8x2
912
dent
hove
idi
jars
pane
rated
u000
wiel
wzn
−𝐬𝐬𝐬𝐬𝐬𝐬
𝑵𝑵
𝒛𝟏
##q2
##czyk
##¦¨
##kine
##yj
##→ℝ
##omy
##elot
##ouin
##ript
cotil
solvent
youtube
manually
corre
1212
equivalency
frances
##orton
bost
concisely
categorize
impression
𝟐𝟐𝒏𝒏
normalizations
pathwidth
biasing
halving
granger
fractionally
bigwedge
validates
empower
swiss
brooks
england
conventions
422
444
organism
candle
729
burau
ai¼
daha
585
##coordin
reinhardt
a0n
760
##ˇˇˇˇˇ
substantiate
karp
##trans
pluripotential
##xyz
hearing
##𝐐𝐐𝐐𝐐𝐐𝐐
vaisman
shrinker
savage
sagan
shortcuts
lunar
##uppose
consolidate
williamson
grammars
furnishes
𝑨𝑨𝑨𝑨𝑨𝑨𝑨𝑨
##𝐖𝐖𝐖𝐖𝐖𝐖𝐖𝐖𝐏𝐏
davey
extensible
crocodile
snowflake
microcanonical
disguise
vapnik
##yvagin
fowler
shabat
feldman
phelps
grandmother
cotilting
ionic
jw
kati
l3
oik
rci
sst
uchi
xw
x8
ˆc
√𝟓𝟓
𝐤𝐤𝐤
𝑂𝑄
𝑥°
𝟕𝝅
##mings
##marks
##car
##jev
##frog
##yk
##hill
##𝐥𝐨𝐠
##esign
##orod
##odz
oral
parat
unis
subext
workspace
##calar
assoc
recount
##kappa
soul
amuse
depolar
monetary
##rowth
1935
1111
##2010
eigend
parameterised
𝟐𝟐𝒊𝒊
quasihomogeneous
centraliser
ballot
actors
postc
##heets
lipshitz
berto
stabilities
fueter
texas
kleiner
584
##250
punct
kervaire
kolyvagin
−𝟑𝟑𝟐𝟐
##rogroup
hermitean
rcp
silva
##adian
terao
lasts
allocates
melrose
executing
menus
allee
welded
victor
climbing
surrogates
##𝐷𝐷𝐷𝐷𝐷𝐷
mccoy
inaccuracies
aoa
parametrisation
ﬁlled
reactor
catastrophic
inflated
polymorphism
leapfrog
tataru
superrigidity
kurtosis
olshanski
eclipse
johansson
tootsie
wznw
2ax
3ab
benson
dining
e5
fade
fv1
gott
lca
mush
tiers
zeld
zannier
−𝑥𝑥
𝟑𝒕
##nuts
##mor
##aving
##ska
##ωn
##ω2
##⋅𝟑𝟑
##icp
##isci
andy
spagh
fierz
##iller
baselines
india
12y
##annan
locom
symp
hyperholomorphic
##ficially
𝟐𝟐−𝟐𝟐
multiplexed
periodogram
fluores
hammer
affords
𝟑𝟑𝟎𝟎𝟎𝟎
##uga
consequent
biggl
##1010
rmt
hoped
radically
covariants
hermann
459
conserves
towns
keis
lloyd
−𝟏𝟏𝟔𝟔
epic
524
ambros
consume
##¯¯¯
gibbons
cobar
masks
jamal
quasiclassical
𝐥𝐥𝐥𝐥𝐥𝐥𝒃𝒃
ladders
##rcpik
𝟏𝟏𝟗𝟗𝟗𝟗
2157
baking
destructive
climb
kashaev
interchanging
˜xi−1
europe
monopoly
opportunistically
dictates
cashews
aliasing
brion
advocate
krasnosel
minuends
imprimitivity
seasonal
kicked
endofunctor
hypoco
laksh
zonotopes
herbrand
earliest
lennard
littelmann
karcher
bureau
spaghetti
4y2
aiz
dai
jong
jitter
p12
√16
𝐛𝐛
𝑊𝑊
##det
##cil
##ool
##oors
##kog
##2x2
##vj
##ﬄe
insc
comic
reb
shali
##chromatic
pade
minded
metacyclic
##iezer
overt
dofs
geomet
##atism
writh
singh
scru
𝟏𝟏−𝟏𝟏
superelliptic
##roscopy
classifiable
tablets
gupp
subtrah
radiating
ava
eliz
tensored
vald
ccs
conjugations
dominator
renorm
straightening
quarks
drl
translationally
vien
𝑎𝑎0
foata
steven
asteroid
electrically
cpa
effectivity
contented
654
590
semideﬁnite
insist
−50
pasting
##mc1
##irection
critiqu
gfdm
##attle
lrt
adequacy
kriging
2158
nondifferentiable
ucb
zooming
𝑥𝑥−ℎ
synthesizing
pisier
nonpositively
wronski
syndetic
amplifiers
underpinning
equisingular
dodecahedron
orthosymplectic
superpolynomials
australia
redefin
upgrade
semiorth
inadequate
monostable
bannai
involutory
subpacketization
venkatesh
𝐤𝐤𝐤𝐤
ambrosetti
shalika
3cos
5π
9n
bress
bidual
cage
dab
dct
eral
npoi
vibr
yf
yao
√𝟏𝟎
△abc
𝑋𝑌
𝒂𝒃
##md
##km
##jian
##−15
##velevich
sty
##umbs
##quanti
##igrams
##phal
atop
nev
##andra
##ensional
argy
plc
greg
schn
##ovsky
19a
delzant
##oley
conclusive
slender
1813
edited
figuring
quasipositive
occuring
erentiable
genomes
𝟒𝟒𝟐𝟐𝟐𝟐
501
permutable
pseudoin
polytropic
fibering
𝟏𝟏𝟐𝟐𝒃𝒃
mimetic
𝟏𝟐𝟏
mmp
donn
spectrahedron
518
cnf
windowed
favored
goldstone
tallies
##180
artist
semistar
fingerprint
swimmer
woodin
nakamura
interferences
wildly
krivelevich
mario
atlases
jeffrey
##written
gesture
polymatroids
duffing
marriage
synerg
salamon
piston
enfants
tessellate
kudla
loxodrom
avalanche
lemniscate
privileged
amusement
4π
930
fmin
gours
lic
ole
putative
seller
ull
vx
wer
𝑪𝑩
𝓵𝓵
##nut
##𝐚𝐭
##𝒖𝒖
##etal
mature
##plastic
mathai
deﬂ
unnormal
nonintegrable
searrow
10−2
transseries
decomp
sec2x
sov
upstream
crease
lima
endo
##ksen
quantiﬁers
##wardine
guer
guill
nearrow
hara
suitcase
midway
##tility
copolym
shifters
penner
541
##pecial
raynaud
reversion
causation
642
##radial
tuition
klee
ivp
microarray
d24
collisionless
stressed
simplexes
psu
𝑩𝑩𝑪𝑪
𝟑𝟑𝟑𝟑𝟐𝟐
tamb
silo
reversals
tolerate
𝟕𝟓𝟎
##zenberger
𝟒𝟒𝟒𝟒°
xnd2
gyro
interlace
lexicographically
##101520
ordinates
sidor
dissections
cashier
¯¯¯¯¯¯¯¯
interrelated
csps
undesired
cardioid
zipf
##posium
ermakov
isochronous
subconvexity
hotdogs
##students
stadium
goursat
3𝑖
3𝜋
aki
hth
jant
jak
lst
mati
mrow
nud
npo
nina
rural
sion
sonic
tast
vh
wml
y∗
zd
⎣⎢⎢
𝑎0
𝑢𝑛
##npn
##meal
##cone
##500
##𝒐𝒕
resides
##izu
equity
##phers
##abo
metals
hai
##ouss
arena
10𝑥𝑥
corput
frac16
prefactor
minimise
amber
scfts
omnis
##inkel
handover
separatrices
etfs
misc
𝟓𝟓𝟏𝟏𝟐𝟐
congruency
copied
##ashima
arithmetics
linkages
varifold
explorations
𝟏𝟏𝟐𝟐𝟖𝟖
meaningless
microp
fuji
olig
circularly
𝟐𝟐𝟐𝟐𝟐𝟐𝟐
bca
bursts
−𝟏𝟖
privately
539
koike
cointeg
salaries
hallway
camb
693
nxjd1
##−𝟑𝟑𝟐𝟐
##000000
pseudocon
exposes
##𝑃𝑃𝑃𝑃
murray
multifractional
pears
contradictory
exemplary
premises
bergeron
rwre
kramer
occupying
projectivization
helicopter
imbedding
fista
hassett
joshua
astrophysical
maneuvers
deferred
quasilocal
crunchy
liaison
irredundant
grobner
nondeterministic
submarine
bendixson
schinzel
capillarity
scrutin
crown
danc
fry
hain
m⊥
nish
ott
riley
sachs
vess
wd
wich
𝑘𝑥
##lang
##iak
##wig
##bank
##𝑬𝑫
##𝑉𝑉
##atable
##arted
##arrang
##ulative
##emia
beer
##ppe
##pps
dischar
cloning
co2
##achi
leven
##keley
##adur
##povich
manhat
reptiles
##apy
nose
bash
symposium
##ghe
contrag
manifested
existentially
drawer
spectroscopy
boots
distric
lately
impenet
smoothable
1310
agt
superharmonic
refere
−1r
1001
##etski
skii
shortfall
𝟎𝟎𝟖𝟖
cca
##signed
feeding
bertini
antisym
lln
beamspace
micah
##holz
3xy
𝒂𝒂𝟎𝟎
528
apartments
##224
stickel
pulls
detectable
packetization
cooking
mlr3
sqg
𝒛𝒛𝟏𝟏
bowtie
ignores
ipm
##𝑷𝑷𝑸𝑸
narrower
incidentally
cleaning
bloodstream
semifields
kxk
bathtub
suffix
ostrov
comparatively
##𝐯𝐯𝐯𝐯
singletons
nonequivalent
grapef
ˆθn
fbsde
criticism
fugacity
scholze
dpps
stewart
mammals
maneuver
sufﬁci
pepperoni
supermultiplets
hohenberg
bidegree
##iscipl
bats
cation
fas
gia
pss
qo
ral
rover
tse
vega
zeck
πt
𝑫𝑪
𝑶𝑩
𝒇−𝟏
𝟐√𝟐
##mable
##ku
##s1
##was
##×𝐖𝐖𝐖𝐖𝐖𝐖𝐖𝐖𝐏𝐏
##∙𝟒𝟒
##∇f
conlon
##separ
##oding
spiders
##uno
##phard
pav
sean
leop
adink
subpop
diﬀ
overloaded
##annes
structuring
calkin
idnc
convergents
monod
##ordinated
sensed
lowered
##ikoi
##scs
−17
##ugi
##venly
𝟒𝟒𝒙𝒙𝟐𝟐
galvin
rhoades
varkappa
snarks
phenomenology
synch
##𝟕𝟕𝟓𝟓
berkeley
bagging
merk
chai
##racket
sprink
voronov
##−2−10
##rodifferential
056
attacking
768
mlr6
##logy
𝐿𝐿2
bowling
tolerable
swims
##𝑹𝑹𝑹
bedford
##eterminants
bondi
prolate
manifestations
hkt
hawai
tapes
crabs
inflationary
favors
𝟑𝟕𝟓
hairer
friezes
##vasive
gurus
cousins
submonoids
opsgf
bartnik
fiduc
astrophysics
uncoordinated
##𝐨𝐭𝐚𝐥
bradwardine
seventy
gopakumar
toothpicks
arboricity
spielman
ohtsuki
locomotion
manhattan
stickelberger
1in
dde
dold
grou
hike
kup
nou
oxy
uredi
zb
´0
œc
αm
λy
##paper
##web
##bage
##≈𝟎𝟎
##≤2
##𝐢𝐬
toile
toby
weyman
##ulator
##olor
##odyne
##tsche
##ivre
##rest
##izuki
##these
neb
truss
intermedi
relabel
corr
regulate
evasion
correspondent
goed
marine
sammy
specialists
##values
𝒙𝒙→∞
avenues
elias
advis
indications
506
chapoton
configurational
489
2xy0
priced
protecting
bened
mlp
##hata
mcp
461
talked
stagewise
northeast
gromoll
biset
tuza
ageing
𝟐𝟐𝟐𝟐𝟒𝟒
szlenk
𝟏𝟏𝟑𝟑𝟒𝟒
𝟐𝟓𝟔
circulates
582
##imedia
taxa
colonies
−𝟑𝒙
collapsible
enlight
annihilates
##pectra
rossi
babies
bornological
smartphones
drama
golub
golomb
brands
decorations
baked
symplec
furnished
lehmann
stimuli
sustained
venant
##𝑻𝑻𝑻𝑻
wsns
##108642246
wikimedia
prequantization
competitor
resurgent
##artson
stewartson
dengue
cifar
##index
rendez
oppenheimer
mourre
nozzle
reinsurance
hypertoric
semiorthogonal
jantzen
mrowka
4𝑎
615
cin
crop
cacti
cette
hired
mbr
nsp
pong
qw
woi
zl
z5
¬p
𝑎𝑖
##mall
##cut
##ju
##rl
##eor
##øf
insider
##ararajan
##roys
isomorphically
weed
styl
stagn
onig
retic
##pli
##utable
##atini
parsh
##chke
cocomplete
solic
##anted
minlp
seir
##dik
timed
repell
##illan
##ipe
moer
decline
betweenness
inclination
##ieder
outdegree
converses
monog
modulating
categorifications
effros
coordinator
##emannian
sheff
shephard
popescu
combinatoric
prizes
dxldy
saxton
debye
487
walkway
owed
𝟏𝟎𝟕
milligrams
a1n
issued
##𝟏𝟏𝟏𝟏𝟐𝟐
unboundedness
mcs
plactic
180∘
hodg
dfs
##113
565
steinhaus
mirz
contractibility
gpc
517
unfitted
𝟏𝟏𝟎𝟎𝟎𝟎𝟎𝟎
##ecomposable
cosmetic
nonconvexity
voj
voas
𝑩𝑩𝑨𝑨
selfin
silent
fingerprin
bacterium
cbc
ehres
incrementally
##artingales
##bbbb
dragon
dragging
administr
##−−−−
bouncing
cavs
bouc
##𝐓𝐓𝐓𝐓
ρ1−→
##𝑅𝑅𝑅𝑅𝑅𝑅𝑅𝑅
quasimodes
ultradifferentiable
wavefronts
saks
##positivity
##terminal
equilibration
lollipop
fresnel
pragmatic
nonmonotone
bogomolny
myciel
winkler
myself
khinchin
semidualizing
h6pital
viennot
guruswami
honda
kech
m−
nour
nomial
px2
sack
srm
sacks
xq
π3
𝑱𝑱
𝑹𝒐𝒕
##sol
##uz
##zik
##zwe
##ﬁeld
##aling
##itations
##vective
forks
anarchy
poonen
parab
uniax
##iche
##thand
mazz
haef
exped
overly
indisc
transposed
12⁄
schiff
outermost
corepresent
existent
council
continually
orienti
investing
betting
denumer
25°
inverters
cuboid
brittle
guest
##etsch
skitt
indicatrix
50°
swar
passwords
covariation
baez
471
##ushel
compressor
raptor
mobiles
𝑷𝑷𝑸𝑸
goldstein
−→ab
##𝑎𝑎𝑏𝑏
##rimp
rrh
##𝑛𝑛−1
ozawa
𝑳𝑳𝟏𝟏
okamoto
hotel
roms
𝟑𝟓𝟎
destroys
kohnen
##𝐷𝐷𝐷𝐷𝐷𝐷𝐷𝐷
csck
stimulated
skipped
##10864224
tonelli
earthquakes
kochen
supseteq
recollements
exerted
suddenly
hungry
crisis
##jugate
subposet
aksz
cochran
##omplement
𝐦𝐩𝐡
##estaﬃne
paratopological
impenetrable
rendezvous
ehresmann
𝑹𝒐𝒕𝒂𝒕𝒊𝒐𝒏
skittles
0t
2𝑦𝑦
cue
ias
k4
ked
o¤
oog
pud
pps
psh
tech
κi
∠𝑩𝑩
⎝⎜
𝐦𝐢𝐧
𝑥𝑦
##x5
##mar
##eras
##leton
##igl
##essential
suns
discharg
##tekar
##anders
lein
meander
constantin
accepting
10100
##posing
##lesh
diatomic
eskin
##anners
surge
larsen
producers
colline
positives
maximise
laver
boyer
gluc
remmel
convexification
superl
##𝟒𝟒𝟏𝟏
kaplan
opposing
rung
whiteboards
sixteenths
##heaf
packaging
breath
polaron
545
majors
hatched
447
extragradient
mcle
gkz
endows
577
−𝟐𝟐𝒙𝒙
erasing
cantelli
690
hessians
𝟑𝟑𝟑𝟑°
𝒏𝒏−𝟏𝟏
muskat
ciphers
soundararajan
subdividing
ggbm
imperative
𝟐𝟐𝟑𝟑𝟑𝟑
icm
excitable
skeleta
##liger
elaboration
straightedges
pollack
𝑶𝑶𝑷𝑷
##𝑬𝑬𝑬𝑬
hht
departures
hosts
fcps
shelves
sudoku
axiomatizable
sandwiched
udl
ariki
lindelof
cofibrantly
jorg
hangers
eckmann
supercharacters
ewens
hiker
utzenberger
disregard
behrend
sneakers
moisture
inappropriate
katie
tambara
sheffield
fingerprinting
kechris
haefliger
ooguri
1u
1√2
2−2
3w
ais
aunt
boc
mots
pst
qgr
rts
utt
vish
λf
√x
##pq
##py
##pring
##father
##flu
##÷3
##gado
##−m
##bac
##𝑟2
##≅¯
##eros
##omor
wem
wehr
fores
propri
##elin
alv
exced
shrimp
##iry
unicity
##pple
clipping
##alls
opdam
geod
esult
locc
calci
monst
##introduc
consci
looij
13x
piat
eigenbasis
requis
crime
buzz
takens
bihamiltonian
wavepack
avram
1007
digamma
placeholder
coup
##cccc
predicative
tense
𝟎𝟎𝟒𝟒
sumsets
radic
brady
##1234
##argava
542
morphological
majid
archet
totality
443
meshless
##lswede
bbc
router
resonators
##1100
527
anisotrop
saturate
cummings
uran
##rimitive
970
cyt
cognition
𝒓𝒓𝟐𝟐
fragile
southern
universities
##orrelations
forbid
λiui
mallows
grandfather
ashtekar
michelle
nanopar
bhargava
ahlswede
baths
dilatations
rudnick
∇ju
undeﬁned
unambiguously
synergy
##approximation
goulden
jesse
disintegration
sloane
akhiezer
##coefﬁcient
keisler
critiquing
synergistic
unnormalized
calcium
looijenga
6b
9th
cement
e−2t
fists
gis
jur
j−1
kie
nitely
tda
z−
ˆτ
λ3
√9
√𝟕
√32
𝐚𝐧𝐝
##pic
##c©
##iarities
##g2
##gments
##wfs
##𝑙𝑎𝑡𝑖𝑜𝑛
##orgue
##reu
topoi
##oment
##veev
##ulous
matveev
reich
repos
mathe
deple
deposition
unrec
unused
##dsky
##abelled
nonamenable
minib
metro
enkf
arist
##lln
##opy
##155
recasting
detach
12𝑥𝑥
##jecting
surjections
calorie
##obile
equiv1
monomers
##egan
franks
lai
booth
extendability
smoothings
naturality
superher
coordinati
𝒙𝒙𝒙𝒙
satisfiable
0004
biggr
##𝟔𝟔𝟐𝟐
454
deductions
duham
mcf
498
pressureless
consumes
𝟏𝟏𝟑𝟑𝝅𝝅
dsldt
bolzano
730
𝐵𝐵𝐴𝐴
cobordant
turbine
##ideriv
##randa
bpsk
##easured
ohs
anc2
permanental
sweet
1−x
murty
christod
supermartingale
pertains
chemotactic
crowds
bistability
jeu
biomass
stimulus
norden
##ascular
trimming
v∗1
##icozzi
gutman
mowed
##𝐭𝐭𝐭𝐭𝐬𝐬
amoebas
##llllllllllllllllllllllllllllllllllllllllllllllllllllllllllllllll
darnell
awarded
evacuation
lafforgue
centrif
zeckendorf
fiducial
uniaxial
3q
bones
d6
dani
eie
fras
hsi
ivi
icc
juc
lck
mts
nathan
rls
rush
rasp
sau
seld
wachs
θi
√𝟖
√𝟏𝟏𝟏𝟏
∼△
ﬂat
𝑅𝑆
##pting
##lock
##tys
##gur
thumbs
##orc
proto
##olly
stake
##imp
##stab
an−2
alperin
exiting
##ria
##qui
##utations
unreduced
ator
mahon
advective
subhyper
cursor
repaired
##aguchi
multirate
##kav
crew
ems
goppa
unitriangular
boe
brin
##ostatic
sheffer
barron
horob
cdc
programmed
debl
herr
##ixi
##𝟔𝟔𝟔
##hee
recoverability
𝟏𝟎𝟗
berlin
llt
slowing
lightning
promised
𝑎𝑎𝑎𝑎
##aware
remarked
routh
bai
schwe
𝒇𝒇−𝟏𝟏
533
markedly
780
732
ppm
palatini
silves
e−st
mitigates
cameras
roger
telephone
extrapolated
clicking
accommodates
bidisc
2206
alexandroff
illuminated
peculiarities
lehner
zumbrun
pockets
deteriorate
publisher
hypermulti
appreciate
enzyme
lacey
nonrepe
##taneo
untrusted
##kedastic
##akrishnan
solovay
brothers
punctual
vessels
oxygen
christodoul
3v
7d
dms
dahl
hanson
ian
iht
jons
kern
lss
mth
[...]
